unsigned char model_int8_tflite[] = {
  0x20, 0x00, 0x00, 0x00, 0x54, 0x46, 0x4c, 0x33, 0x00, 0x00, 0x00, 0x00,
  0x14, 0x00, 0x20, 0x00, 0x1c, 0x00, 0x18, 0x00, 0x14, 0x00, 0x10, 0x00,
  0x0c, 0x00, 0x00, 0x00, 0x08, 0x00, 0x04, 0x00, 0x14, 0x00, 0x00, 0x00,
  0x1c, 0x00, 0x00, 0x00, 0x98, 0x00, 0x00, 0x00, 0x18, 0x01, 0x00, 0x00,
  0x20, 0x15, 0x00, 0x00, 0x30, 0x15, 0x00, 0x00, 0xf0, 0x24, 0x00, 0x00,
  0x03, 0x00, 0x00, 0x00, 0x01, 0x00, 0x00, 0x00, 0x10, 0x00, 0x00, 0x00,
  0x00, 0x00, 0x0a, 0x00, 0x10, 0x00, 0x0c, 0x00, 0x08, 0x00, 0x04, 0x00,
  0x0a, 0x00, 0x00, 0x00, 0x0c, 0x00, 0x00, 0x00, 0x1c, 0x00, 0x00, 0x00,
  0x3c, 0x00, 0x00, 0x00, 0x0f, 0x00, 0x00, 0x00, 0x73, 0x65, 0x72, 0x76,
  0x69, 0x6e, 0x67, 0x5f, 0x64, 0x65, 0x66, 0x61, 0x75, 0x6c, 0x74, 0x00,
  0x01, 0x00, 0x00, 0x00, 0x04, 0x00, 0x00, 0x00, 0x68, 0xff, 0xff, 0xff,
  0x0a, 0x00, 0x00, 0x00, 0x04, 0x00, 0x00, 0x00, 0x08, 0x00, 0x00, 0x00,
  0x6f, 0x75, 0x74, 0x70, 0x75, 0x74, 0x5f, 0x30, 0x00, 0x00, 0x00, 0x00,
  0x01, 0x00, 0x00, 0x00, 0x04, 0x00, 0x00, 0x00, 0x96, 0xea, 0xff, 0xff,
  0x04, 0x00, 0x00, 0x00, 0x0c, 0x00, 0x00, 0x00, 0x6b, 0x65, 0x72, 0x61,
  0x73, 0x5f, 0x74, 0x65, 0x6e, 0x73, 0x6f, 0x72, 0x00, 0x00, 0x00, 0x00,
  0x03, 0x00, 0x00, 0x00, 0x5c, 0x00, 0x00, 0x00, 0x2c, 0x00, 0x00, 0x00,
  0x04, 0x00, 0x00, 0x00, 0xb8, 0xff, 0xff, 0xff, 0x0e, 0x00, 0x00, 0x00,
  0x04, 0x00, 0x00, 0x00, 0x13, 0x00, 0x00, 0x00, 0x43, 0x4f, 0x4e, 0x56,
  0x45, 0x52, 0x53, 0x49, 0x4f, 0x4e, 0x5f, 0x4d, 0x45, 0x54, 0x41, 0x44,
  0x41, 0x54, 0x41, 0x00, 0xdc, 0xff, 0xff, 0xff, 0x0d, 0x00, 0x00, 0x00,
  0x04, 0x00, 0x00, 0x00, 0x13, 0x00, 0x00, 0x00, 0x6d, 0x69, 0x6e, 0x5f,
  0x72, 0x75, 0x6e, 0x74, 0x69, 0x6d, 0x65, 0x5f, 0x76, 0x65, 0x72, 0x73,
  0x69, 0x6f, 0x6e, 0x00, 0x08, 0x00, 0x0c, 0x00, 0x08, 0x00, 0x04, 0x00,
  0x08, 0x00, 0x00, 0x00, 0x0c, 0x00, 0x00, 0x00, 0x04, 0x00, 0x00, 0x00,
  0x13, 0x00, 0x00, 0x00, 0x6d, 0x69, 0x6e, 0x5f, 0x72, 0x75, 0x6e, 0x74,
  0x69, 0x6d, 0x65, 0x5f, 0x76, 0x65, 0x72, 0x73, 0x69, 0x6f, 0x6e, 0x00,
  0x0f, 0x00, 0x00, 0x00, 0x04, 0x14, 0x00, 0x00, 0xfc, 0x13, 0x00, 0x00,
  0xe4, 0x13, 0x00, 0x00, 0x94, 0x13, 0x00, 0x00, 0x04, 0x13, 0x00, 0x00,
  0xf4, 0x0a, 0x00, 0x00, 0xe4, 0x09, 0x00, 0x00, 0xd4, 0x00, 0x00, 0x00,
  0xcc, 0x00, 0x00, 0x00, 0xc4, 0x00, 0x00, 0x00, 0xbc, 0x00, 0x00, 0x00,
  0xb4, 0x00, 0x00, 0x00, 0x94, 0x00, 0x00, 0x00, 0x74, 0x00, 0x00, 0x00,
  0x04, 0x00, 0x00, 0x00, 0x76, 0xeb, 0xff, 0xff, 0x04, 0x00, 0x00, 0x00,
  0x60, 0x00, 0x00, 0x00, 0x0c, 0x00, 0x00, 0x00, 0x08, 0x00, 0x0e, 0x00,
  0x08, 0x00, 0x04, 0x00, 0x08, 0x00, 0x00, 0x00, 0x10, 0x00, 0x00, 0x00,
  0x28, 0x00, 0x00, 0x00, 0x00, 0x00, 0x06, 0x00, 0x08, 0x00, 0x04, 0x00,
  0x06, 0x00, 0x00, 0x00, 0x04, 0x00, 0x00, 0x00, 0x01, 0x00, 0x00, 0x00,
  0xeb, 0x03, 0x00, 0x00, 0x0c, 0x00, 0x18, 0x00, 0x14, 0x00, 0x10, 0x00,
  0x0c, 0x00, 0x04, 0x00, 0x0c, 0x00, 0x00, 0x00, 0x27, 0xde, 0xa6, 0x54,
  0xc2, 0x8a, 0xcd, 0xd3, 0x02, 0x00, 0x00, 0x00, 0x02, 0x00, 0x00, 0x00,
  0x04, 0x00, 0x00, 0x00, 0x06, 0x00, 0x00, 0x00, 0x32, 0x2e, 0x31, 0x39,
  0x2e, 0x30, 0x00, 0x00, 0xe2, 0xeb, 0xff, 0xff, 0x04, 0x00, 0x00, 0x00,
  0x10, 0x00, 0x00, 0x00, 0x00, 0x00, 0x00, 0x00, 0x00, 0x00, 0x00, 0x00,
  0x00, 0x00, 0x00, 0x00, 0x00, 0x00, 0x00, 0x00, 0xfe, 0xeb, 0xff, 0xff,
  0x04, 0x00, 0x00, 0x00, 0x10, 0x00, 0x00, 0x00, 0x31, 0x2e, 0x31, 0x34,
  0x2e, 0x30, 0x00, 0x00, 0x00, 0x00, 0x00, 0x00, 0x00, 0x00, 0x00, 0x00,
  0xe8, 0xeb, 0xff, 0xff, 0xec, 0xeb, 0xff, 0xff, 0xf0, 0xeb, 0xff, 0xff,
  0xf4, 0xeb, 0xff, 0xff, 0x2a, 0xec, 0xff, 0xff, 0x04, 0x00, 0x00, 0x00,
  0x00, 0x09, 0x00, 0x00, 0xc9, 0xb4, 0xe5, 0xe6, 0x06, 0x42, 0xef, 0xcc,
  0xe7, 0xfa, 0x0b, 0x24, 0x13, 0xda, 0xfd, 0xf6, 0x15, 0x2a, 0xf3, 0xe5,
  0xf0, 0x24, 0x26, 0x2c, 0xd9, 0x0a, 0xec, 0x26, 0x30, 0x2c, 0xe6, 0x03,
  0x3f, 0x31, 0x26, 0x7f, 0xed, 0x12, 0x01, 0x34, 0x4b, 0x71, 0xd6, 0xd7,
  0xf4, 0x19, 0x12, 0x41, 0xc9, 0xfb, 0xef, 0x39, 0x32, 0x57, 0xdd, 0x0a,
  0x14, 0x0e, 0x0d, 0x52, 0xe1, 0x0f, 0x03, 0x05, 0x24, 0x41, 0xa6, 0x03,
  0xf9, 0x03, 0x34, 0x7f, 0x95, 0x9e, 0x13, 0xeb, 0x03, 0x2d, 0x4f, 0x66,
  0x72, 0x19, 0x3a, 0x23, 0x21, 0x27, 0x1c, 0xf2, 0x1f, 0x2f, 0x0a, 0x32,
  0x25, 0x48, 0x38, 0x34, 0x07, 0x20, 0x0a, 0x49, 0xd1, 0x2b, 0x38, 0x3e,
  0x67, 0x59, 0x19, 0x7f, 0x8a, 0xbb, 0xed, 0xe6, 0x1f, 0x4d, 0x3f, 0x67,
  0x54, 0x1c, 0x4c, 0x26, 0x00, 0x2d, 0x3f, 0x11, 0x0d, 0x37, 0x09, 0x0e,
  0x3d, 0x48, 0x50, 0x48, 0xf1, 0x01, 0xfd, 0x37, 0xd5, 0x31, 0x3d, 0x52,
  0x7f, 0x6f, 0x20, 0x70, 0x81, 0xc4, 0x24, 0x3a, 0x55, 0x7b, 0x01, 0x3c,
  0x3d, 0x00, 0x27, 0x44, 0x08, 0x13, 0x26, 0x18, 0x37, 0x64, 0xd5, 0x1b,
  0x1b, 0x1b, 0x3b, 0x50, 0xd7, 0x35, 0x27, 0x3b, 0x12, 0x28, 0x92, 0x3a,
  0x2e, 0x43, 0x12, 0x77, 0xb7, 0xc9, 0xf4, 0x15, 0x11, 0x5c, 0x01, 0xd5,
  0xfb, 0x16, 0x1c, 0x15, 0x05, 0x02, 0xfb, 0x15, 0x2a, 0x46, 0xeb, 0xe8,
  0x13, 0x12, 0x1a, 0x3f, 0xc9, 0x22, 0x03, 0x1d, 0x16, 0x28, 0xaa, 0x04,
  0x1a, 0x46, 0x19, 0x7f, 0x2f, 0xfc, 0xe2, 0x1f, 0x2b, 0x60, 0xd1, 0x8d,
  0xc9, 0xfe, 0x0f, 0x1f, 0xfe, 0xd3, 0xf7, 0x24, 0x1e, 0x3d, 0xf5, 0xfa,
  0xf9, 0x00, 0x0f, 0x33, 0xd1, 0x1a, 0x02, 0x24, 0x40, 0x3f, 0xb3, 0xf0,
  0x08, 0x10, 0x4b, 0x7f, 0xdd, 0xe8, 0xed, 0xe6, 0xe6, 0xe9, 0x15, 0x29,
  0x06, 0x20, 0x20, 0x1f, 0xf5, 0x11, 0x28, 0x06, 0xff, 0x0d, 0x2b, 0x2b,
  0x2b, 0x3b, 0x30, 0x41, 0x27, 0x20, 0x27, 0x33, 0x06, 0x0d, 0x7f, 0x3d,
  0x51, 0x30, 0x30, 0x5b, 0xf1, 0xeb, 0x04, 0x38, 0x33, 0x7f, 0xdf, 0xbc,
  0xf3, 0x1a, 0x0d, 0x38, 0xf0, 0xe9, 0xed, 0x27, 0x37, 0x56, 0xd5, 0xf0,
  0x00, 0x00, 0x25, 0x58, 0xd1, 0x03, 0x0d, 0x12, 0x21, 0x3e, 0x93, 0xf1,
  0xe9, 0x0a, 0x2b, 0x6f, 0xc8, 0xd1, 0xf1, 0x21, 0x33, 0x7f, 0xf4, 0xee,
  0x15, 0x15, 0x13, 0x24, 0xd8, 0x12, 0xef, 0x1f, 0x23, 0x4c, 0xcb, 0xfa,
  0xed, 0x18, 0x08, 0x4c, 0xe1, 0x1a, 0x0d, 0x16, 0x08, 0x29, 0xba, 0x1c,
  0x30, 0x3e, 0x0f, 0x6b, 0xb8, 0xba, 0x20, 0x0d, 0xbf, 0x3e, 0x02, 0x4f,
  0xe6, 0x54, 0xa6, 0xf1, 0x94, 0xf1, 0xa8, 0xe9, 0xed, 0xc7, 0xa2, 0x85,
  0x10, 0xf8, 0x36, 0x20, 0xd8, 0x81, 0x5d, 0xf9, 0xfd, 0x90, 0x1c, 0x53,
  0xdf, 0xc3, 0x3c, 0xfc, 0xec, 0xdf, 0xd4, 0xad, 0xac, 0x2a, 0xd6, 0x1f,
  0xae, 0xad, 0x93, 0x59, 0x16, 0xf1, 0xf7, 0xa9, 0xca, 0x27, 0xf6, 0xf0,
  0x01, 0xd3, 0xbc, 0x2a, 0xfb, 0x02, 0x01, 0xc7, 0x81, 0x43, 0x2a, 0xe9,
  0xe8, 0xeb, 0xb2, 0x26, 0xb2, 0x82, 0xe8, 0x11, 0x9f, 0xf3, 0x45, 0xb9,
  0x8d, 0x00, 0xe3, 0xf2, 0xaf, 0xbc, 0xff, 0x53, 0xc6, 0x6b, 0x5f, 0xdb,
  0xf4, 0x74, 0xff, 0x81, 0xa4, 0x31, 0xf9, 0x8e, 0x4d, 0x8b, 0x17, 0xf0,
  0x55, 0x1d, 0xb1, 0x6f, 0xdc, 0xee, 0xed, 0xef, 0xfa, 0xec, 0x22, 0x25,
  0x1c, 0x10, 0x16, 0x19, 0x1c, 0x10, 0x1e, 0xf0, 0xfe, 0xfc, 0x2a, 0x1a,
  0x2b, 0x25, 0x22, 0x1e, 0x2d, 0x24, 0x1b, 0x2a, 0xfc, 0x06, 0x7f, 0x3c,
  0x59, 0x37, 0x30, 0x54, 0xf5, 0xf6, 0xda, 0x19, 0x35, 0x5e, 0xb6, 0xae,
  0xce, 0xfa, 0x10, 0x25, 0xfc, 0xe8, 0x0f, 0x0a, 0x0b, 0x2b, 0xf8, 0x09,
  0x15, 0x0c, 0x1a, 0x2e, 0xd7, 0x12, 0xf1, 0x0f, 0x35, 0x3a, 0xc3, 0x0d,
  0x13, 0x10, 0x3f, 0x7f, 0xc6, 0xec, 0xf9, 0xf8, 0xff, 0x0a, 0xfe, 0x30,
  0x22, 0x19, 0x41, 0x32, 0xed, 0x00, 0x35, 0xed, 0x08, 0x27, 0x02, 0x34,
  0x32, 0x49, 0x25, 0x5d, 0x07, 0x19, 0x1a, 0x3e, 0x0c, 0x1e, 0x7f, 0x61,
  0x7c, 0x5c, 0x32, 0x7f, 0xe0, 0xf9, 0xef, 0x1c, 0x2e, 0x7a, 0xb5, 0xe1,
  0xe2, 0x16, 0x0a, 0x3a, 0xde, 0xf6, 0xf8, 0x12, 0x26, 0x46, 0xde, 0x14,
  0x05, 0x1d, 0x13, 0x53, 0xce, 0x17, 0x10, 0x0d, 0x26, 0x3b, 0x9f, 0x1d,
  0x0c, 0x0d, 0x33, 0x7f, 0xab, 0xe7, 0xf0, 0xff, 0x09, 0x0d, 0xfb, 0x54,
  0x4f, 0x07, 0x1e, 0x1b, 0xe8, 0x28, 0x2d, 0xfc, 0x00, 0x34, 0xea, 0x26,
  0x47, 0x42, 0x21, 0x3e, 0x0f, 0x0a, 0x12, 0x3e, 0xed, 0x2f, 0x2b, 0x4a,
  0x64, 0x4a, 0x21, 0x7f, 0xe1, 0xed, 0xf2, 0xe9, 0xea, 0xea, 0x12, 0x0d,
  0x12, 0x0c, 0x1e, 0x1d, 0xf7, 0xf2, 0x14, 0xf0, 0x03, 0x02, 0x19, 0x09,
  0x20, 0x32, 0x1e, 0x2b, 0x21, 0xf9, 0x0f, 0x20, 0x01, 0x13, 0x7f, 0x36,
  0x43, 0x30, 0x2e, 0x48, 0xc3, 0xb9, 0xe4, 0x04, 0x0c, 0x13, 0x27, 0xf1,
  0xf2, 0x08, 0x47, 0x26, 0x1b, 0xe7, 0x07, 0xf4, 0xf3, 0x19, 0x0c, 0xdc,
  0x0e, 0x22, 0x1d, 0x3c, 0x05, 0xe5, 0xf3, 0x3c, 0x06, 0x30, 0x7f, 0x10,
  0x62, 0x56, 0x32, 0x73, 0xda, 0xe6, 0xef, 0xe4, 0xf1, 0xdf, 0x0d, 0x1a,
  0x14, 0x06, 0x22, 0x24, 0x0e, 0x01, 0x24, 0xed, 0xfb, 0x05, 0x2c, 0x17,
  0x2d, 0x3b, 0x25, 0x31, 0x22, 0x16, 0x15, 0x25, 0x10, 0x11, 0x7f, 0x3d,
  0x4e, 0x49, 0x31, 0x63, 0x81, 0xc6, 0x16, 0x1a, 0x49, 0x75, 0xfb, 0x30,
  0x3b, 0x07, 0x2d, 0x1d, 0x01, 0x1c, 0x29, 0x29, 0x30, 0x50, 0xdd, 0x29,
  0x33, 0x3b, 0x1c, 0x45, 0xf8, 0x1c, 0x13, 0x17, 0xef, 0x48, 0x8a, 0x3d,
  0x3b, 0x33, 0x12, 0x75, 0xd5, 0xdb, 0xed, 0xf9, 0xfb, 0x14, 0x1c, 0x22,
  0x10, 0x1e, 0x31, 0x28, 0xfd, 0x02, 0x26, 0x0a, 0xf7, 0x21, 0x07, 0x14,
  0x29, 0x29, 0x1d, 0x42, 0x06, 0x0d, 0x05, 0x2b, 0x00, 0x28, 0x7f, 0x33,
  0x55, 0x3a, 0x2d, 0x5c, 0xe2, 0xfb, 0xe4, 0xe8, 0xe5, 0xee, 0xf8, 0x18,
  0xfe, 0x1b, 0x24, 0x1d, 0xf6, 0x03, 0x0c, 0xef, 0xf2, 0x17, 0x20, 0x1d,
  0x2f, 0x38, 0x28, 0x28, 0x1e, 0x0c, 0x12, 0x2e, 0x0b, 0x21, 0x7f, 0x3a,
  0x51, 0x2d, 0x32, 0x4c, 0xe4, 0x01, 0xb6, 0xae, 0xc8, 0xd5, 0xee, 0xe9,
  0xbd, 0xf8, 0xd4, 0xfd, 0x19, 0xfd, 0xf5, 0xfc, 0xd9, 0xc1, 0x23, 0xf7,
  0xec, 0xe1, 0xd1, 0xf0, 0x32, 0x00, 0xf5, 0x10, 0xfd, 0x04, 0x7f, 0x14,
  0x35, 0x39, 0x32, 0x49, 0xe2, 0xf3, 0xf1, 0xef, 0xe9, 0xe6, 0x15, 0x1a,
  0xf8, 0xee, 0xdb, 0xd6, 0xc1, 0xc8, 0xed, 0x2e, 0x1f, 0x21, 0x81, 0xb7,
  0xd7, 0x01, 0x05, 0x1e, 0xc4, 0xdb, 0xbf, 0xf1, 0xf9, 0x12, 0x1d, 0x2d,
  0x0c, 0x07, 0x19, 0x2e, 0x0d, 0x22, 0x01, 0x27, 0x40, 0x7f, 0xc0, 0xbc,
  0xdb, 0x11, 0x23, 0x28, 0xd6, 0xe6, 0x03, 0x1f, 0x11, 0x47, 0xdd, 0xf9,
  0xf9, 0xfb, 0xfd, 0x47, 0xd1, 0x0d, 0xf3, 0x1a, 0x36, 0x57, 0xac, 0xe4,
  0xf2, 0x15, 0x3f, 0x74, 0x38, 0x08, 0x02, 0x18, 0x13, 0xe0, 0x3d, 0x0f,
  0x19, 0x1a, 0x1e, 0xf2, 0x49, 0x00, 0x3c, 0x24, 0x21, 0xe4, 0x61, 0x5c,
  0x17, 0x1d, 0x27, 0xd8, 0x26, 0x7f, 0x47, 0x18, 0x38, 0xe7, 0x4f, 0x51,
  0x3b, 0x0c, 0x15, 0xdb, 0xdd, 0x04, 0xfc, 0xea, 0xeb, 0xfe, 0xf4, 0x14,
  0x0e, 0x17, 0x2f, 0x2d, 0xd9, 0xf7, 0x25, 0xf3, 0x01, 0x10, 0x01, 0x31,
  0x2b, 0x35, 0x21, 0x4b, 0x10, 0x17, 0x11, 0x34, 0x10, 0x20, 0x7f, 0x35,
  0x52, 0x2a, 0x3a, 0x6f, 0xd8, 0xe8, 0xeb, 0xea, 0xe5, 0xea, 0x08, 0x2a,
  0x15, 0x11, 0x25, 0x2c, 0xef, 0x04, 0x0f, 0x02, 0xf6, 0x0b, 0x1e, 0x2c,
  0x32, 0x38, 0x2e, 0x41, 0x2a, 0x0d, 0x17, 0x22, 0x03, 0x28, 0x7f, 0x3c,
  0x5f, 0x38, 0x2e, 0x66, 0xb5, 0x40, 0x0c, 0x21, 0x50, 0x7f, 0xb7, 0x2a,
  0x04, 0xfc, 0x0d, 0x22, 0xbf, 0x1d, 0x0a, 0x23, 0x1a, 0x42, 0xce, 0x2c,
  0x20, 0xff, 0xfd, 0x49, 0xe0, 0x14, 0x09, 0x14, 0x30, 0x34, 0x98, 0x38,
  0x11, 0x06, 0x25, 0x72, 0xe4, 0xf0, 0xea, 0xf4, 0xf2, 0xeb, 0x12, 0x15,
  0x13, 0x0f, 0x13, 0x28, 0x0d, 0x0c, 0x22, 0xf6, 0xf1, 0x0b, 0x2b, 0x24,
  0x29, 0x2c, 0x27, 0x2d, 0x29, 0x18, 0x1b, 0x2b, 0xff, 0x1d, 0x7f, 0x40,
  0x49, 0x40, 0x25, 0x51, 0x81, 0xac, 0xf7, 0x04, 0x01, 0x0b, 0x69, 0x75,
  0x6e, 0x1d, 0x47, 0x3b, 0x3e, 0x48, 0x28, 0xfe, 0x22, 0x42, 0x14, 0x22,
  0x34, 0x48, 0x28, 0x49, 0x09, 0x13, 0x0b, 0x5e, 0xe4, 0x1d, 0x61, 0x4f,
  0x73, 0x5f, 0x12, 0x6b, 0x99, 0x51, 0x1c, 0x26, 0x45, 0x7f, 0xa3, 0x52,
  0x22, 0x10, 0x1a, 0x31, 0xc5, 0x3e, 0x22, 0x33, 0x36, 0x49, 0xc4, 0x59,
  0x66, 0xfb, 0x23, 0x4d, 0xd1, 0x1d, 0x35, 0x13, 0x2f, 0x2d, 0x90, 0x65,
  0x38, 0xff, 0x37, 0x71, 0xb6, 0xbc, 0xe7, 0xe4, 0xf7, 0x1d, 0x42, 0x36,
  0x24, 0x2c, 0x41, 0x1f, 0x33, 0x02, 0x29, 0xfc, 0xf7, 0x32, 0x19, 0x11,
  0x2a, 0x4c, 0x2d, 0x47, 0x1d, 0xfc, 0x01, 0x42, 0x0c, 0x29, 0x77, 0x1e,
  0x68, 0x53, 0x1f, 0x7f, 0xd3, 0xe7, 0xe0, 0xe8, 0xe5, 0x01, 0xff, 0x0f,
  0xfd, 0x15, 0x26, 0x2f, 0x0f, 0x09, 0x1a, 0xfb, 0x09, 0x0e, 0x13, 0x01,
  0x21, 0x3b, 0x32, 0x4f, 0x06, 0xf0, 0xf9, 0x3c, 0x18, 0x2e, 0x7f, 0x1a,
  0x6b, 0x46, 0x38, 0x7b, 0xaf, 0xc8, 0xe2, 0xf9, 0xe4, 0x18, 0x11, 0x0c,
  0x0b, 0x17, 0x26, 0x22, 0x27, 0x03, 0x0a, 0x05, 0x06, 0x2f, 0x00, 0x0b,
  0x12, 0x38, 0x30, 0x4b, 0x17, 0xf8, 0x0a, 0x26, 0xfd, 0x20, 0x7f, 0x18,
  0x5c, 0x47, 0x29, 0x7c, 0xa1, 0xb5, 0xef, 0x12, 0x2a, 0x5b, 0x11, 0xfe,
  0xe5, 0x03, 0x2d, 0x0f, 0x2a, 0xfa, 0x19, 0x11, 0x08, 0x34, 0xfc, 0xe9,
  0x0a, 0x15, 0x22, 0x44, 0xeb, 0x0e, 0xe9, 0x25, 0x17, 0x27, 0xfb, 0x1b,
  0x3a, 0x4d, 0x32, 0x7f, 0xa1, 0xe7, 0x0f, 0xff, 0x02, 0x41, 0x02, 0x44,
  0x4d, 0x13, 0x41, 0x0e, 0xf6, 0x32, 0x30, 0xf3, 0x21, 0x34, 0xf4, 0x18,
  0x28, 0x37, 0x25, 0x44, 0xf6, 0x16, 0x09, 0x3a, 0xeb, 0x24, 0x38, 0x57,
  0x7f, 0x52, 0x2b, 0x6d, 0x0e, 0x14, 0x1e, 0x33, 0x5d, 0x7f, 0xd2, 0xda,
  0xfb, 0x15, 0x25, 0x3a, 0xf6, 0x08, 0xee, 0x20, 0x23, 0x41, 0xd7, 0xed,
  0xee, 0xfe, 0x10, 0x36, 0xe1, 0x10, 0xf7, 0x14, 0x27, 0x3a, 0xa4, 0xe6,
  0xe8, 0x10, 0x21, 0x54, 0xae, 0x1f, 0x16, 0x36, 0x58, 0x7f, 0xcc, 0x19,
  0xf5, 0x06, 0x28, 0x2b, 0xde, 0x04, 0x01, 0x33, 0x22, 0x67, 0xc4, 0x2f,
  0x17, 0x14, 0x26, 0x39, 0xd5, 0x13, 0x04, 0x25, 0x1d, 0x47, 0x93, 0x04,
  0x11, 0x23, 0x2e, 0x67, 0x97, 0xdd, 0xf6, 0x03, 0x0a, 0x47, 0xd9, 0x3a,
  0x15, 0x18, 0x1f, 0x31, 0xc8, 0x1b, 0x12, 0xf2, 0xfe, 0x37, 0xc6, 0x02,
  0x18, 0x0b, 0x2a, 0x4a, 0xf2, 0x11, 0xfd, 0x49, 0x11, 0x23, 0xe9, 0x45,
  0x67, 0x55, 0x32, 0x7f, 0xcb, 0xf0, 0xe5, 0xf4, 0x02, 0xf1, 0xf6, 0x3a,
  0x0a, 0x2c, 0x32, 0x3c, 0xe2, 0x0c, 0x26, 0x00, 0xfc, 0x19, 0x15, 0x28,
  0x45, 0x3b, 0x1f, 0x4a, 0x15, 0x16, 0x13, 0x34, 0x1a, 0x25, 0x7d, 0x52,
  0x73, 0x4a, 0x3d, 0x7f, 0x07, 0x1d, 0x23, 0x44, 0x59, 0x7a, 0xcd, 0xbc,
  0xdc, 0x21, 0x29, 0x3e, 0xed, 0xec, 0xf3, 0x21, 0x33, 0x5b, 0xdc, 0x03,
  0xfa, 0x00, 0x15, 0x41, 0xd4, 0x0e, 0x0f, 0xfd, 0x28, 0x4f, 0x92, 0xef,
  0xee, 0x0d, 0x3c, 0x7f, 0xba, 0xc9, 0xff, 0x13, 0x15, 0x25, 0x4b, 0x2d,
  0x37, 0x20, 0x39, 0x2f, 0x29, 0x13, 0x17, 0xe3, 0x0d, 0x16, 0x12, 0x02,
  0x1a, 0x39, 0x28, 0x2e, 0x17, 0x11, 0x0d, 0x2f, 0x01, 0x23, 0x7f, 0x16,
  0x5e, 0x51, 0x0e, 0x56, 0xe3, 0xfa, 0xf3, 0xed, 0xf0, 0xee, 0xf6, 0x1a,
  0x12, 0x0e, 0x20, 0x35, 0xea, 0x0b, 0x1d, 0xf4, 0x02, 0x21, 0x1b, 0x32,
  0x2d, 0x31, 0x2b, 0x33, 0x1e, 0x0e, 0x20, 0x1d, 0x16, 0x1c, 0x7f, 0x45,
  0x4f, 0x3a, 0x2e, 0x57, 0x8b, 0x9c, 0x1e, 0x26, 0x2a, 0x7f, 0x41, 0x33,
  0x4c, 0x1d, 0x29, 0x2b, 0x18, 0x16, 0x1f, 0x02, 0x17, 0x51, 0xf7, 0xef,
  0xe2, 0x1a, 0x18, 0x41, 0xdb, 0x06, 0xe3, 0x34, 0xf4, 0x30, 0xb2, 0xf4,
  0x48, 0x66, 0x0b, 0x43, 0x8e, 0xe2, 0xf6, 0x09, 0x26, 0x3b, 0xf1, 0x36,
  0x42, 0x27, 0x22, 0x19, 0xfe, 0x1e, 0x28, 0xfc, 0x2a, 0x2a, 0xe7, 0xd8,
  0x18, 0x16, 0x19, 0x39, 0xdb, 0x08, 0xed, 0x37, 0xf1, 0x15, 0x26, 0x3e,
  0x74, 0x46, 0x13, 0x7f, 0x81, 0xd9, 0x01, 0x0c, 0x07, 0x54, 0xff, 0x4c,
  0x45, 0x24, 0x1d, 0x10, 0xf7, 0x1a, 0x0e, 0x0c, 0x06, 0x4f, 0xf3, 0x14,
  0x15, 0x35, 0x37, 0x36, 0xea, 0x27, 0x13, 0x30, 0xf6, 0x27, 0xf9, 0x59,
  0x66, 0x55, 0x25, 0x7f, 0xdd, 0xe5, 0xf0, 0xf3, 0xee, 0xee, 0x1b, 0x1e,
  0x08, 0x09, 0x0c, 0x14, 0x0f, 0x11, 0x18, 0xfa, 0xf0, 0x0a, 0x35, 0x1d,
  0x1d, 0x2a, 0x20, 0x1f, 0x3b, 0x17, 0x14, 0x2c, 0x07, 0x0c, 0x7f, 0x3a,
  0x4c, 0x31, 0x25, 0x4b, 0xb6, 0x40, 0x0e, 0xda, 0xa7, 0xd5, 0x15, 0x17,
  0xe3, 0xf1, 0xc7, 0xd8, 0x55, 0xea, 0x02, 0x0b, 0xf9, 0xe9, 0x85, 0xc8,
  0x43, 0x29, 0x61, 0xbc, 0xdb, 0x19, 0xc2, 0xf5, 0x81, 0xc5, 0xb0, 0xf4,
  0x31, 0x57, 0xc9, 0xa6, 0xa3, 0x49, 0x21, 0xff, 0x37, 0x7f, 0xdb, 0x41,
  0xff, 0x0e, 0xfa, 0x35, 0xba, 0x22, 0x18, 0x24, 0x28, 0x56, 0xc0, 0x3c,
  0x34, 0x0f, 0x1a, 0x57, 0xd9, 0x17, 0x23, 0x20, 0x31, 0x34, 0x8e, 0x4d,
  0x16, 0x0f, 0x3d, 0x63, 0xcb, 0x37, 0x04, 0x27, 0x2e, 0x6c, 0xb0, 0xee,
  0xdd, 0x0e, 0x16, 0x2c, 0xb4, 0x1a, 0x0a, 0x27, 0x27, 0x42, 0xd3, 0x1f,
  0x1b, 0xf9, 0x0c, 0x2f, 0xd0, 0x2e, 0x18, 0x13, 0x3f, 0x31, 0x98, 0x22,
  0x19, 0xfd, 0x21, 0x7f, 0xc4, 0xc7, 0xd0, 0xf5, 0x17, 0x37, 0xde, 0xcf,
  0xf4, 0xf2, 0x1c, 0x18, 0x01, 0x02, 0xf8, 0x15, 0x02, 0x3a, 0x0a, 0xf1,
  0x04, 0x1f, 0x28, 0x2d, 0xe0, 0xfb, 0x0c, 0x2f, 0x26, 0x24, 0xf0, 0x00,
  0x38, 0x2e, 0x2e, 0x7f, 0xac, 0xec, 0xf1, 0xf3, 0x0c, 0x2c, 0xce, 0x02,
  0xd9, 0x00, 0x2b, 0x2a, 0xcb, 0xfc, 0x15, 0x06, 0x16, 0x25, 0xe5, 0x29,
  0x11, 0x1b, 0x06, 0x47, 0xfd, 0x1f, 0xfc, 0x2f, 0x22, 0x41, 0xfe, 0x28,
  0x49, 0x34, 0x3f, 0x7f, 0xe1, 0xf1, 0xed, 0xe5, 0xe6, 0xe7, 0x01, 0x14,
  0x14, 0x0a, 0x28, 0x22, 0xfc, 0x07, 0x19, 0xf8, 0x02, 0x08, 0x31, 0x1f,
  0x29, 0x38, 0x1c, 0x38, 0x2f, 0x17, 0x15, 0x2b, 0x15, 0x12, 0x7f, 0x32,
  0x50, 0x30, 0x3a, 0x5a, 0x86, 0xb1, 0x13, 0x2b, 0x2d, 0x7f, 0x13, 0x27,
  0x3c, 0x20, 0x13, 0x27, 0xe0, 0x21, 0x0b, 0x2a, 0x23, 0x5d, 0xe9, 0x38,
  0x2b, 0x3e, 0x1c, 0x59, 0xf0, 0x1a, 0x09, 0x43, 0xe2, 0x1e, 0x84, 0x35,
  0x39, 0x4c, 0x34, 0x7f, 0xb6, 0xdd, 0xf1, 0xe9, 0x0b, 0x35, 0xec, 0x0d,
  0xfe, 0x03, 0x43, 0x1c, 0xe4, 0x07, 0x2f, 0x02, 0x10, 0x1f, 0xf9, 0xf2,
  0x13, 0x23, 0x11, 0x34, 0xfd, 0x0c, 0xf7, 0x4c, 0x27, 0x37, 0x2a, 0x3f,
  0x5d, 0x4d, 0x28, 0x7f, 0x8d, 0x94, 0xe6, 0xf3, 0xfe, 0x3f, 0x3c, 0x21,
  0x43, 0xfa, 0x2a, 0x13, 0x09, 0x0a, 0x12, 0xf4, 0x05, 0x2c, 0xd0, 0xbe,
  0xfb, 0x31, 0x26, 0x48, 0xdb, 0xdb, 0xca, 0x37, 0xd1, 0x28, 0x65, 0x1c,
  0x7f, 0x7e, 0x12, 0x66, 0x9f, 0xf4, 0xec, 0x04, 0x16, 0x33, 0x00, 0x1e,
  0x00, 0x0a, 0x1f, 0x21, 0xf0, 0x0f, 0x0c, 0xee, 0x08, 0x40, 0xd1, 0x04,
  0x02, 0x1d, 0x25, 0x56, 0x07, 0x00, 0xf6, 0x44, 0x1c, 0x22, 0x60, 0x45,
  0x5e, 0x3e, 0x3d, 0x7f, 0xdf, 0xe7, 0xf5, 0xe1, 0xda, 0xe6, 0xf7, 0x1f,
  0xfd, 0x19, 0x2c, 0x27, 0xe8, 0xff, 0x1a, 0xf6, 0xf4, 0x1c, 0x24, 0x2b,
  0x31, 0x2d, 0x18, 0x3a, 0x26, 0x17, 0x23, 0x1d, 0x07, 0x1b, 0x7f, 0x4a,
  0x5d, 0x3d, 0x34, 0x67, 0xda, 0xeb, 0xfa, 0xf5, 0xee, 0xfb, 0xfd, 0x23,
  0x17, 0x1d, 0x32, 0x25, 0xfc, 0x0c, 0x15, 0x06, 0x07, 0x0e, 0x14, 0x1d,
  0x1c, 0x28, 0x1d, 0x2c, 0x1e, 0x12, 0x19, 0x33, 0x05, 0x20, 0x7f, 0x2c,
  0x56, 0x3a, 0x32, 0x52, 0xd7, 0xe4, 0xea, 0xe9, 0xfa, 0xff, 0x02, 0x36,
  0x0b, 0x0f, 0x29, 0x2c, 0xf2, 0x05, 0x29, 0xf3, 0xf1, 0x10, 0x1b, 0x29,
  0x38, 0x2d, 0x27, 0x36, 0x26, 0x15, 0x08, 0x2e, 0x06, 0x19, 0x7f, 0x44,
  0x5f, 0x3a, 0x3a, 0x68, 0xd3, 0xe1, 0xeb, 0xed, 0xf0, 0xfa, 0x1d, 0x12,
  0x02, 0x1b, 0x27, 0x27, 0x10, 0x0e, 0x21, 0xef, 0xff, 0x1c, 0x21, 0x1a,
  0x1a, 0x35, 0x1e, 0x3a, 0x16, 0x11, 0x0f, 0x26, 0xfd, 0x12, 0x7f, 0x2b,
  0x57, 0x36, 0x29, 0x4d, 0x36, 0xf5, 0xff, 0xff, 0x04, 0x00, 0x00, 0x00,
  0x00, 0x01, 0x00, 0x00, 0x4f, 0x75, 0x00, 0x00, 0x40, 0x69, 0x00, 0x00,
  0x24, 0x54, 0x00, 0x00, 0x7d, 0x5c, 0x00, 0x00, 0x20, 0x95, 0x00, 0x00,
  0x74, 0x87, 0x00, 0x00, 0xad, 0x7b, 0x00, 0x00, 0x9a, 0x1b, 0x00, 0x00,
  0x1c, 0x88, 0x00, 0x00, 0xb8, 0x79, 0x00, 0x00, 0xe2, 0xed, 0xff, 0xff,
  0x4a, 0x29, 0x00, 0x00, 0xa8, 0xc2, 0xff, 0xff, 0x16, 0x15, 0x00, 0x00,
  0x98, 0x74, 0x00, 0x00, 0x20, 0x33, 0x00, 0x00, 0x78, 0x6d, 0x00, 0x00,
  0xe8, 0x46, 0x00, 0x00, 0xa2, 0x1d, 0x00, 0x00, 0x08, 0x58, 0x00, 0x00,
  0xa8, 0x22, 0x00, 0x00, 0xe1, 0x96, 0x00, 0x00, 0xeb, 0x27, 0x00, 0x00,
  0x0b, 0x1d, 0x00, 0x00, 0xa0, 0x46, 0x00, 0x00, 0x7c, 0x22, 0x00, 0x00,
  0x89, 0x70, 0x00, 0x00, 0x3d, 0x14, 0x00, 0x00, 0x55, 0x20, 0x00, 0x00,
  0xb1, 0x24, 0x00, 0x00, 0xd1, 0x5a, 0x00, 0x00, 0x50, 0x15, 0x00, 0x00,
  0xad, 0x56, 0x00, 0x00, 0x0f, 0x4d, 0x00, 0x00, 0xe1, 0x40, 0x00, 0x00,
  0xef, 0x2f, 0x00, 0x00, 0xaf, 0x56, 0x00, 0x00, 0x9b, 0x7b, 0x00, 0x00,
  0x8b, 0x4c, 0x00, 0x00, 0x93, 0x68, 0x00, 0x00, 0x7c, 0x76, 0x00, 0x00,
  0xa7, 0x6d, 0x00, 0x00, 0x81, 0x30, 0x00, 0x00, 0x42, 0x81, 0x00, 0x00,
  0xd6, 0x32, 0x00, 0x00, 0xac, 0x1a, 0x00, 0x00, 0xde, 0x7e, 0x00, 0x00,
  0xed, 0x67, 0x00, 0x00, 0x4e, 0x6f, 0x00, 0x00, 0x51, 0x1c, 0x00, 0x00,
  0x83, 0xda, 0xff, 0xff, 0x0e, 0x62, 0x00, 0x00, 0xac, 0x66, 0x00, 0x00,
  0xf7, 0x77, 0x00, 0x00, 0xe9, 0x5a, 0x00, 0x00, 0xf8, 0x1c, 0x00, 0x00,
  0xd0, 0x94, 0x00, 0x00, 0x10, 0x54, 0x00, 0x00, 0xaa, 0x7d, 0x00, 0x00,
  0x12, 0x58, 0x00, 0x00, 0x4b, 0x25, 0x00, 0x00, 0x19, 0x23, 0x00, 0x00,
  0x52, 0x26, 0x00, 0x00, 0xf9, 0x28, 0x00, 0x00, 0x42, 0xf6, 0xff, 0xff,
  0x04, 0x00, 0x00, 0x00, 0x00, 0x08, 0x00, 0x00, 0x39, 0x3c, 0x27, 0x2c,
  0x3d, 0x39, 0x45, 0xed, 0x4b, 0x3d, 0x00, 0x58, 0x01, 0xce, 0x43, 0x09,
  0x43, 0x19, 0xec, 0x22, 0xde, 0x3d, 0x07, 0xf2, 0x81, 0x83, 0x40, 0xcf,
  0xfb, 0xec, 0x43, 0xde, 0x28, 0x44, 0x16, 0xfe, 0x22, 0x32, 0x2c, 0x4a,
  0x30, 0x37, 0x03, 0x42, 0x22, 0xee, 0x4a, 0x23, 0x37, 0xd9, 0xf6, 0x36,
  0x36, 0x2f, 0x25, 0xdd, 0x3f, 0x2a, 0x3c, 0x2d, 0xed, 0x06, 0x04, 0xff,
  0x0f, 0xff, 0xf8, 0xf7, 0xf3, 0x07, 0x14, 0xfb, 0x0d, 0x07, 0x00, 0x02,
  0x02, 0xfd, 0x09, 0xfa, 0xff, 0xec, 0x07, 0x10, 0xff, 0xf3, 0x03, 0xff,
  0x1d, 0xf0, 0x04, 0x17, 0xfb, 0xfa, 0xb6, 0xfe, 0xf7, 0x81, 0x00, 0x04,
  0x06, 0x02, 0xf1, 0x05, 0xe8, 0xf5, 0xf7, 0x06, 0x01, 0xf8, 0xfb, 0xf8,
  0xef, 0xff, 0x02, 0xce, 0xe7, 0x07, 0xf7, 0xfe, 0xf6, 0xfb, 0x0c, 0xfb,
  0xfc, 0xfc, 0xf8, 0x04, 0x15, 0x10, 0x0a, 0x0b, 0x0e, 0x11, 0x0f, 0xe7,
  0x1e, 0x17, 0x02, 0x7f, 0x03, 0xdf, 0x12, 0xf7, 0x13, 0x09, 0xee, 0x09,
  0xe7, 0x0d, 0xfa, 0xec, 0xec, 0xd2, 0x1f, 0xfa, 0xf0, 0xea, 0x15, 0xe4,
  0x01, 0x15, 0x02, 0xff, 0x07, 0x0e, 0x08, 0x24, 0x12, 0x0c, 0xf9, 0x19,
  0x0a, 0xe8, 0x24, 0x17, 0x0b, 0xe6, 0xfe, 0x13, 0x10, 0x11, 0x0e, 0xe5,
  0x0e, 0x0e, 0x19, 0x0d, 0xe7, 0xf3, 0xf1, 0xf3, 0x1b, 0x0f, 0x1f, 0x18,
  0x10, 0x18, 0x13, 0x1e, 0x15, 0x17, 0x01, 0x7f, 0x07, 0x20, 0x15, 0x16,
  0x0f, 0x20, 0x22, 0x20, 0x24, 0x1c, 0x14, 0x1f, 0x5d, 0x50, 0x19, 0xfd,
  0x1a, 0x21, 0x14, 0x17, 0x1d, 0x09, 0x16, 0x1c, 0x18, 0x14, 0x1c, 0x0c,
  0x0e, 0x20, 0x1d, 0x14, 0x18, 0x20, 0x1a, 0x1d, 0x16, 0x1b, 0x07, 0x15,
  0x13, 0x1a, 0x12, 0x1a, 0x18, 0x1b, 0x26, 0x18, 0x17, 0x1b, 0x14, 0x1f,
  0x18, 0x24, 0x1c, 0x1b, 0x24, 0x20, 0x25, 0x0f, 0x1b, 0x1d, 0xfb, 0x7f,
  0x03, 0x10, 0x24, 0x20, 0x1b, 0x1c, 0x15, 0x17, 0x14, 0x1a, 0x1f, 0x17,
  0x13, 0x2a, 0x1f, 0xbe, 0x20, 0x1c, 0x24, 0x18, 0x1a, 0x21, 0x14, 0x1a,
  0x19, 0x1e, 0x13, 0x22, 0x18, 0x1f, 0x13, 0x21, 0x15, 0x16, 0x25, 0x19,
  0x20, 0x16, 0xfe, 0x16, 0x17, 0x1d, 0x1a, 0x16, 0x1a, 0x1f, 0x19, 0x18,
  0x16, 0x16, 0x1c, 0x11, 0x18, 0x01, 0x18, 0x1b, 0x0a, 0x1c, 0x11, 0x25,
  0x10, 0x0e, 0xf8, 0x7f, 0xfa, 0x24, 0x15, 0x1b, 0x0d, 0x1c, 0x27, 0x1b,
  0x2c, 0x0f, 0x1c, 0x27, 0x7a, 0x6f, 0x04, 0x10, 0x27, 0x1c, 0x08, 0x24,
  0x21, 0x0f, 0x1e, 0x24, 0x1d, 0x17, 0x18, 0x03, 0x19, 0x19, 0x1b, 0x02,
  0x19, 0x18, 0x18, 0x11, 0x16, 0x2e, 0xf8, 0x09, 0x12, 0x1e, 0x16, 0x23,
  0x11, 0x13, 0x1f, 0x14, 0x1d, 0x1e, 0x26, 0x28, 0x19, 0x24, 0x14, 0x14,
  0x1e, 0x1e, 0x1b, 0x12, 0x25, 0x21, 0x00, 0x7f, 0x06, 0x14, 0x22, 0x18,
  0x1a, 0x1d, 0x1b, 0x1e, 0x1a, 0x22, 0x19, 0x15, 0x1c, 0x33, 0x15, 0xc3,
  0x15, 0x19, 0x17, 0x16, 0x11, 0x1b, 0x19, 0x15, 0x1c, 0x1c, 0x1c, 0x22,
  0x16, 0x19, 0x1a, 0x1f, 0x0f, 0x15, 0x1b, 0x1a, 0x1a, 0x15, 0x03, 0x17,
  0x21, 0x20, 0x1b, 0x0f, 0x19, 0x19, 0x22, 0x18, 0x11, 0x19, 0x1f, 0x13,
  0x09, 0xe8, 0x0f, 0x0f, 0xf6, 0xf5, 0xfe, 0x1c, 0xe6, 0xf5, 0x04, 0xed,
  0x05, 0x37, 0x05, 0x23, 0xef, 0x14, 0x1f, 0x13, 0x27, 0xfe, 0x16, 0x27,
  0x7f, 0x52, 0xee, 0x5a, 0x1e, 0x1a, 0xeb, 0x27, 0x19, 0xf6, 0x14, 0x1b,
  0x16, 0x01, 0x0c, 0xe7, 0xf0, 0x0e, 0x1b, 0xdf, 0x1e, 0x1a, 0xfd, 0x14,
  0x06, 0x34, 0x02, 0xf0, 0xf1, 0x0a, 0x06, 0x29, 0xfc, 0x11, 0x10, 0x0c,
  0x17, 0x1f, 0x23, 0x17, 0x1b, 0x18, 0x14, 0x16, 0x12, 0x13, 0x11, 0x26,
  0x0f, 0x0d, 0x03, 0x7f, 0x09, 0x2d, 0x1e, 0x1e, 0x1c, 0x21, 0x1a, 0x1d,
  0x26, 0x12, 0x1c, 0x1a, 0x6d, 0x59, 0x0f, 0xfe, 0x23, 0x1d, 0x13, 0x28,
  0x15, 0x15, 0x20, 0x1c, 0x21, 0x12, 0x18, 0x11, 0x0d, 0x20, 0x15, 0x0f,
  0x21, 0x15, 0x12, 0x11, 0x1e, 0x29, 0x00, 0x11, 0x10, 0x21, 0x18, 0x21,
  0x17, 0x16, 0x25, 0x1a, 0x20, 0x17, 0x26, 0x18, 0x19, 0x14, 0x1c, 0x19,
  0x17, 0x12, 0x13, 0x0f, 0x1a, 0x19, 0x04, 0x7f, 0xfc, 0x1b, 0x1b, 0x17,
  0x11, 0x19, 0x16, 0x15, 0x1f, 0x1a, 0x1c, 0x11, 0x2d, 0x35, 0x15, 0xd3,
  0x11, 0x16, 0x16, 0x11, 0x19, 0x12, 0x11, 0x16, 0x14, 0x1d, 0x1d, 0x13,
  0x11, 0x18, 0x10, 0x19, 0x1b, 0x12, 0x1c, 0x15, 0x19, 0x11, 0xfb, 0x15,
  0x1d, 0x1a, 0x12, 0x19, 0x13, 0x1e, 0x22, 0x17, 0x1d, 0x1a, 0x1d, 0x1c,
  0x13, 0x1b, 0xff, 0x09, 0x18, 0x19, 0x13, 0xdc, 0x1a, 0x1d, 0x04, 0x7f,
  0x03, 0xda, 0x1a, 0xf7, 0x19, 0x03, 0xed, 0x09, 0xe4, 0x15, 0xf9, 0xe5,
  0xdf, 0xc7, 0x1f, 0x02, 0xe9, 0xeb, 0x23, 0xdd, 0x07, 0x10, 0x00, 0x02,
  0x05, 0x17, 0x0b, 0x36, 0x14, 0x19, 0xf0, 0x18, 0x02, 0xe3, 0x20, 0x19,
  0x10, 0xe0, 0xff, 0x16, 0x13, 0x13, 0x04, 0xe8, 0x10, 0x10, 0x1c, 0x13,
  0xe5, 0xf1, 0xf2, 0xf5, 0xeb, 0xc7, 0x33, 0x24, 0x0b, 0xf4, 0xba, 0x21,
  0xd7, 0xfb, 0xfe, 0xff, 0x04, 0x3b, 0xce, 0x16, 0xd3, 0x20, 0x1b, 0x07,
  0x1a, 0x0c, 0x1d, 0x0c, 0xf6, 0x81, 0xae, 0x2b, 0x06, 0x17, 0xd4, 0x22,
  0x33, 0xee, 0x20, 0x09, 0x10, 0xfe, 0x1a, 0xc6, 0xe7, 0x03, 0x0e, 0xbc,
  0x27, 0x0d, 0x1c, 0x13, 0x15, 0x2d, 0xf9, 0xeb, 0xc7, 0xef, 0xec, 0x12,
  0x10, 0xfc, 0x1c, 0x02, 0x0d, 0x17, 0x17, 0x1c, 0x21, 0x1c, 0x17, 0x19,
  0x17, 0x1e, 0x1f, 0x1c, 0x1e, 0x1d, 0xfb, 0x7f, 0xfe, 0x11, 0x20, 0x1f,
  0x1d, 0x18, 0x1e, 0x21, 0x1c, 0x13, 0x18, 0x11, 0x1f, 0x35, 0x17, 0xc2,
  0x1f, 0x14, 0x18, 0x17, 0x15, 0x10, 0x1c, 0x12, 0x1d, 0x18, 0x19, 0x17,
  0x16, 0x1d, 0x16, 0x1c, 0x1a, 0x10, 0x16, 0x15, 0x13, 0x0f, 0x04, 0x15,
  0x13, 0x14, 0x1f, 0x14, 0x20, 0x1b, 0x19, 0x18, 0x1c, 0x13, 0x17, 0x1c,
  0x02, 0xd5, 0x15, 0x12, 0x03, 0xfe, 0xfe, 0x2e, 0xe1, 0xf8, 0xf8, 0xe5,
  0x03, 0x3d, 0x05, 0x1c, 0xf6, 0x13, 0x2e, 0x1d, 0x29, 0x06, 0x28, 0x29,
  0x7f, 0x59, 0xe6, 0x69, 0x1f, 0x24, 0xea, 0x38, 0x0f, 0xea, 0x18, 0x1b,
  0x12, 0x0c, 0x17, 0xde, 0xec, 0x04, 0x1e, 0xd8, 0x1f, 0x2d, 0x00, 0x0d,
  0x11, 0x35, 0xfe, 0xec, 0xea, 0x03, 0x0b, 0x2f, 0xfd, 0x19, 0x0f, 0x1b,
  0x28, 0x22, 0x22, 0x1f, 0x1c, 0x30, 0x1d, 0x1e, 0x2d, 0x22, 0x2f, 0xf4,
  0x35, 0x28, 0x04, 0x39, 0xfb, 0xd8, 0x30, 0x15, 0x2c, 0x1c, 0xec, 0x1d,
  0xe8, 0x2e, 0x12, 0xf1, 0x81, 0xab, 0x35, 0xe0, 0x06, 0xfc, 0x37, 0xed,
  0x1c, 0x2c, 0x13, 0x04, 0x10, 0x26, 0x1d, 0x45, 0x33, 0x1e, 0x04, 0x3c,
  0x1d, 0xfe, 0x31, 0x28, 0x25, 0xe1, 0xfc, 0x27, 0x2e, 0x22, 0x1d, 0xf1,
  0x28, 0x23, 0x2b, 0x1d, 0xf4, 0x00, 0x00, 0x04, 0x14, 0x0d, 0x19, 0x0f,
  0x17, 0x1b, 0x1a, 0x16, 0x1b, 0x17, 0xfb, 0x7f, 0xfa, 0x17, 0x19, 0x1b,
  0x1a, 0x13, 0x18, 0x18, 0x16, 0x0f, 0x13, 0x18, 0x45, 0x41, 0x13, 0xee,
  0x1e, 0x1b, 0x14, 0x20, 0x17, 0x0d, 0x1d, 0x15, 0x14, 0x14, 0x19, 0x10,
  0x10, 0x1c, 0x15, 0x0e, 0x13, 0x1c, 0x16, 0x14, 0x1b, 0x1b, 0xff, 0x18,
  0x11, 0x1c, 0x0f, 0x1b, 0x1a, 0x14, 0x1f, 0x19, 0x13, 0x15, 0x16, 0x1b,
  0x03, 0xe6, 0x08, 0x08, 0x00, 0xf8, 0xf4, 0x1d, 0xed, 0xfe, 0xf9, 0xfc,
  0xfe, 0x28, 0xfc, 0x1e, 0xf3, 0x0b, 0x25, 0x0e, 0x1f, 0x00, 0x1e, 0x1b,
  0x7f, 0x53, 0xea, 0x3d, 0x14, 0x17, 0xef, 0x21, 0x0a, 0xf5, 0x0f, 0x18,
  0x16, 0x0b, 0x0a, 0xe5, 0xee, 0x05, 0x13, 0xf0, 0x13, 0x1c, 0x03, 0x11,
  0x04, 0x25, 0xfb, 0xfa, 0xea, 0xff, 0x0b, 0x24, 0x00, 0x19, 0x14, 0x11,
  0x19, 0x19, 0x1f, 0x1d, 0x19, 0x1c, 0x1f, 0x1b, 0x12, 0x14, 0x1c, 0x1b,
  0x18, 0x1a, 0x00, 0x7f, 0x06, 0x18, 0x16, 0x1b, 0x15, 0x16, 0x18, 0x17,
  0x17, 0x17, 0x12, 0x1d, 0x3d, 0x41, 0x15, 0xd3, 0x15, 0x10, 0x16, 0x16,
  0x15, 0x18, 0x17, 0x19, 0x1c, 0x1c, 0x16, 0x16, 0x17, 0x1e, 0x10, 0x11,
  0x1c, 0x1a, 0x1a, 0x19, 0x18, 0x16, 0xff, 0x16, 0x17, 0x10, 0x19, 0x19,
  0x16, 0x13, 0x1b, 0x1a, 0x1c, 0x1b, 0x1e, 0x14, 0x1a, 0x0c, 0x17, 0x14,
  0x17, 0x11, 0x10, 0x14, 0x14, 0x17, 0xfc, 0x7f, 0xfd, 0x16, 0x13, 0x17,
  0x1b, 0x1b, 0x17, 0x14, 0x20, 0x0e, 0x1d, 0x1e, 0x53, 0x48, 0x13, 0xed,
  0x1a, 0x1e, 0x12, 0x1b, 0x19, 0x0f, 0x18, 0x1e, 0x1e, 0x19, 0x17, 0x0e,
  0x11, 0x13, 0x16, 0x19, 0x18, 0x1b, 0x12, 0x19, 0x16, 0x1b, 0xfb, 0x17,
  0x14, 0x10, 0x12, 0x1d, 0x10, 0x18, 0x1a, 0x0f, 0x19, 0x12, 0x1e, 0x1e,
  0x21, 0x15, 0x1b, 0x1a, 0x1c, 0x13, 0x17, 0x18, 0x19, 0x19, 0xfb, 0x7f,
  0xfb, 0x13, 0x18, 0x14, 0x1b, 0x15, 0x12, 0x18, 0x11, 0x1a, 0x19, 0x18,
  0x28, 0x40, 0x1e, 0xd0, 0x18, 0x13, 0x12, 0x1a, 0x1c, 0x17, 0x15, 0x17,
  0x11, 0x1d, 0x15, 0x15, 0x1c, 0x17, 0x18, 0x12, 0x17, 0x16, 0x1c, 0x1a,
  0x1d, 0x19, 0x02, 0x19, 0x15, 0x18, 0x18, 0x16, 0x1d, 0x1c, 0x17, 0x1b,
  0x12, 0x13, 0x14, 0x17, 0xf6, 0xbc, 0x19, 0x0a, 0xf6, 0xf2, 0xd9, 0x0e,
  0xca, 0xf6, 0x06, 0x7f, 0xfc, 0x2e, 0xd2, 0x13, 0xd4, 0x02, 0x23, 0x18,
  0x1b, 0xf2, 0x07, 0x0e, 0x30, 0x07, 0xc8, 0x30, 0x00, 0x10, 0xcd, 0x1f,
  0x1c, 0xda, 0x18, 0x02, 0x07, 0xfa, 0x0f, 0xcb, 0xda, 0x09, 0x07, 0xc8,
  0x22, 0x0e, 0x0f, 0x00, 0x09, 0x1d, 0x05, 0xe7, 0xd1, 0xf5, 0xfa, 0x0d,
  0xf6, 0x06, 0x1d, 0x07, 0x0f, 0x12, 0x12, 0x18, 0x2b, 0x2d, 0x27, 0x1b,
  0x31, 0x28, 0x28, 0xf3, 0x2e, 0x26, 0x04, 0x47, 0x06, 0xe8, 0x27, 0x04,
  0x2b, 0x14, 0xe0, 0x15, 0xec, 0x26, 0x05, 0xf0, 0xba, 0x81, 0x27, 0xed,
  0xf6, 0xf0, 0x2c, 0xe0, 0x13, 0x24, 0x0e, 0xf7, 0x0f, 0x26, 0x1b, 0x3d,
  0x2c, 0x22, 0x07, 0x2b, 0x21, 0xfa, 0x30, 0x25, 0x28, 0xe9, 0x03, 0x2e,
  0x31, 0x24, 0x20, 0xe2, 0x2f, 0x1a, 0x21, 0x15, 0xea, 0xfb, 0x03, 0xfc,
  0xfe, 0xe5, 0x16, 0x0f, 0xfd, 0xf4, 0xf2, 0x16, 0xed, 0xf6, 0x03, 0xfe,
  0xfc, 0x28, 0xf9, 0x15, 0xf2, 0x0b, 0x25, 0x13, 0x23, 0xf9, 0x19, 0x20,
  0x7f, 0x4b, 0xec, 0x3e, 0x18, 0x20, 0xf5, 0x25, 0x17, 0xf1, 0x18, 0x17,
  0x0c, 0x06, 0x0f, 0xec, 0xed, 0x08, 0x19, 0xed, 0x1c, 0x1e, 0xfb, 0x10,
  0x0d, 0x1e, 0x03, 0xf6, 0xeb, 0x07, 0x08, 0x22, 0xfe, 0x10, 0x11, 0x13,
  0x1d, 0x21, 0x20, 0x1c, 0xfe, 0xf1, 0x09, 0x11, 0x01, 0xf6, 0xf5, 0x1b,
  0xf2, 0xf3, 0xf8, 0xfa, 0xfb, 0x26, 0xf8, 0x13, 0xf0, 0x09, 0x1c, 0x17,
  0x22, 0xf8, 0x1f, 0x1a, 0x7f, 0x4f, 0xf2, 0x48, 0x21, 0x15, 0xe9, 0x28,
  0x11, 0xfb, 0x12, 0x1a, 0x0a, 0x0e, 0x0f, 0xe8, 0xf9, 0x06, 0x17, 0xe7,
  0x1c, 0x1e, 0xff, 0x08, 0x0a, 0x26, 0x00, 0xf4, 0xf5, 0xff, 0x09, 0x21,
  0xf8, 0x0a, 0x17, 0x0b, 0x16, 0x19, 0x1d, 0x15, 0x0b, 0xef, 0xfa, 0xf8,
  0xf5, 0x06, 0x0c, 0xfd, 0x05, 0xf9, 0xff, 0x12, 0x00, 0x04, 0x01, 0xf0,
  0xf3, 0xec, 0x04, 0x0d, 0x07, 0xf6, 0xfc, 0xfd, 0x21, 0xf0, 0xfb, 0x23,
  0xee, 0xfc, 0xab, 0x04, 0xfc, 0x81, 0x09, 0x05, 0x06, 0x04, 0xf2, 0xfc,
  0xe2, 0xed, 0xf2, 0xfe, 0x02, 0xf6, 0x04, 0xf6, 0xf2, 0x0b, 0xff, 0xbb,
  0xd2, 0x07, 0xf5, 0x05, 0xf9, 0xf7, 0x03, 0xf4, 0xfa, 0xfd, 0xf7, 0x07,
  0x12, 0xf9, 0xf6, 0xfb, 0xfb, 0x0d, 0x1d, 0x00, 0x10, 0xf7, 0xff, 0x2b,
  0x01, 0x06, 0x07, 0xe6, 0xf1, 0xe6, 0xfb, 0x15, 0xfc, 0xfa, 0x01, 0xf2,
  0x20, 0x17, 0x0d, 0x47, 0xe7, 0xf8, 0xa4, 0xff, 0x01, 0x81, 0x07, 0x08,
  0x08, 0x10, 0xe9, 0x11, 0xf6, 0xdd, 0xee, 0x11, 0x06, 0xed, 0x0b, 0xf1,
  0xee, 0x07, 0x05, 0xcc, 0xce, 0x0c, 0xe8, 0xfd, 0xf8, 0xf3, 0xf9, 0xf1,
  0xef, 0xfc, 0xf9, 0x08, 0x05, 0xe9, 0x0a, 0x14, 0x00, 0xf7, 0xf9, 0x26,
  0xe6, 0xff, 0x01, 0xeb, 0x01, 0x2e, 0x02, 0x16, 0xf3, 0x0b, 0x27, 0x1d,
  0x20, 0xfa, 0x17, 0x1c, 0x7f, 0x4f, 0xed, 0x52, 0x19, 0x1f, 0xf3, 0x2c,
  0x0f, 0xfa, 0x13, 0x13, 0x0d, 0x08, 0x14, 0xe8, 0xef, 0x01, 0x12, 0xe0,
  0x1c, 0x1c, 0x07, 0x08, 0x07, 0x2d, 0xff, 0xef, 0xeb, 0x04, 0x08, 0x1b,
  0xfc, 0x0c, 0x11, 0x16, 0x20, 0x20, 0x1f, 0x1b, 0x16, 0x20, 0x18, 0x1b,
  0x16, 0x1e, 0x19, 0x16, 0x1d, 0x17, 0xf9, 0x7f, 0x01, 0x1c, 0x22, 0x17,
  0x1e, 0x13, 0x18, 0x24, 0x13, 0x22, 0x1e, 0x12, 0x20, 0x3b, 0x1c, 0xc0,
  0x11, 0x17, 0x21, 0x13, 0x16, 0x1e, 0x1a, 0x1a, 0x17, 0x1d, 0x18, 0x20,
  0x18, 0x15, 0x15, 0x16, 0x1d, 0x11, 0x1e, 0x1a, 0x20, 0x11, 0xff, 0x13,
  0x1c, 0x15, 0x1f, 0x14, 0x16, 0x20, 0x1a, 0x19, 0x15, 0x15, 0x12, 0x16,
  0x21, 0x15, 0x22, 0x1b, 0x12, 0x1a, 0x15, 0x1c, 0x1c, 0x11, 0xff, 0x7f,
  0x03, 0x1b, 0x14, 0x15, 0x1e, 0x20, 0x1b, 0x16, 0x1d, 0x1c, 0x13, 0x19,
  0x52, 0x45, 0x18, 0xeb, 0x18, 0x21, 0x13, 0x1d, 0x1e, 0x10, 0x1f, 0x1b,
  0x1c, 0x11, 0x10, 0x12, 0x0f, 0x16, 0x15, 0x11, 0x12, 0x19, 0x14, 0x17,
  0x1e, 0x20, 0x08, 0x0d, 0x0f, 0x16, 0x1a, 0x1b, 0x12, 0x1e, 0x1a, 0x13,
  0x1d, 0x1b, 0x17, 0x1f, 0x15, 0x1a, 0x18, 0x11, 0x13, 0x13, 0x13, 0x15,
  0x18, 0x10, 0xfb, 0x7f, 0xfc, 0x21, 0x10, 0x1e, 0x19, 0x12, 0x17, 0x1d,
  0x15, 0x13, 0x1d, 0x1b, 0x40, 0x40, 0x1a, 0xda, 0x1e, 0x18, 0x1d, 0x12,
  0x11, 0x18, 0x1b, 0x1a, 0x1c, 0x1c, 0x14, 0x11, 0x1a, 0x19, 0x10, 0x1c,
  0x10, 0x12, 0x15, 0x1d, 0x17, 0x20, 0xfa, 0x19, 0x12, 0x15, 0x14, 0x1a,
  0x1b, 0x13, 0x17, 0x1c, 0x13, 0x12, 0x11, 0x17, 0x17, 0x1b, 0x1f, 0x11,
  0x17, 0x1b, 0x1b, 0x1e, 0x14, 0x1c, 0x00, 0x7f, 0x03, 0x20, 0x1c, 0x18,
  0x13, 0x17, 0x19, 0x19, 0x17, 0x1b, 0x1a, 0x13, 0x53, 0x45, 0x1b, 0xee,
  0x16, 0x1e, 0x0f, 0x1e, 0x1a, 0x1b, 0x17, 0x13, 0x14, 0x15, 0x16, 0x11,
  0x11, 0x13, 0x1a, 0x14, 0x16, 0x13, 0x19, 0x1b, 0x11, 0x21, 0xff, 0x15,
  0x1a, 0x1a, 0x1e, 0x1c, 0x1c, 0x19, 0x20, 0x15, 0x17, 0x12, 0x1e, 0x19,
  0x1d, 0x28, 0x1a, 0x21, 0x24, 0x27, 0x1f, 0x1d, 0x1d, 0x1c, 0x04, 0x7f,
  0xfd, 0x0e, 0x21, 0x21, 0x25, 0x24, 0x20, 0x20, 0x1a, 0x24, 0x21, 0x12,
  0x02, 0x29, 0x21, 0xb1, 0x15, 0x1e, 0x2a, 0x16, 0x19, 0x17, 0x16, 0x14,
  0x1a, 0x23, 0x1e, 0x23, 0x27, 0x1b, 0x14, 0x26, 0x1d, 0x18, 0x1e, 0x23,
  0x21, 0x0c, 0xfe, 0x22, 0x28, 0x1c, 0x22, 0x10, 0x1f, 0x22, 0x1d, 0x19,
  0x16, 0x11, 0x15, 0x18, 0x4e, 0xfe, 0xff, 0xff, 0x04, 0x00, 0x00, 0x00,
  0x80, 0x00, 0x00, 0x00, 0x8a, 0x0a, 0x00, 0x00, 0x01, 0x03, 0x00, 0x00,
  0x6a, 0x03, 0x00, 0x00, 0x55, 0x04, 0x00, 0x00, 0x47, 0x05, 0x00, 0x00,
  0x23, 0x03, 0x00, 0x00, 0xa5, 0x04, 0x00, 0x00, 0x70, 0xff, 0xff, 0xff,
  0x41, 0x04, 0x00, 0x00, 0x11, 0x04, 0x00, 0x00, 0xd4, 0x03, 0x00, 0x00,
  0x14, 0xfd, 0xff, 0xff, 0x53, 0x04, 0x00, 0x00, 0x54, 0xff, 0xff, 0xff,
  0xc9, 0x06, 0x00, 0x00, 0x6d, 0x04, 0x00, 0x00, 0xe4, 0xfe, 0xff, 0xff,
  0x3e, 0x04, 0x00, 0x00, 0x4f, 0x03, 0x00, 0x00, 0xba, 0x04, 0x00, 0x00,
  0x8a, 0xfd, 0xff, 0xff, 0xf4, 0x05, 0x00, 0x00, 0x17, 0xff, 0xff, 0xff,
  0xd7, 0xfe, 0xff, 0xff, 0xff, 0x02, 0x00, 0x00, 0x3e, 0x07, 0x00, 0x00,
  0xa8, 0xfe, 0xff, 0xff, 0x13, 0x05, 0x00, 0x00, 0x84, 0x04, 0x00, 0x00,
  0x32, 0x04, 0x00, 0x00, 0xe3, 0x04, 0x00, 0x00, 0xe5, 0x06, 0x00, 0x00,
  0xda, 0xfe, 0xff, 0xff, 0x04, 0x00, 0x00, 0x00, 0x40, 0x00, 0x00, 0x00,
  0x17, 0x81, 0x0a, 0x11, 0x18, 0x0d, 0x1b, 0xd9, 0x10, 0x1c, 0x07, 0xe7,
  0x1b, 0xd4, 0x1a, 0x14, 0xdd, 0x17, 0x15, 0x1a, 0xd8, 0x0f, 0xe4, 0xdf,
  0x8f, 0x97, 0xd9, 0x1d, 0x16, 0x16, 0x15, 0x1a, 0xae, 0xac, 0xb4, 0x23,
  0x10, 0x2c, 0x18, 0x39, 0x29, 0x24, 0xb3, 0x81, 0x1b, 0x45, 0xa8, 0x23,
  0x35, 0x1f, 0x27, 0x1e, 0xcd, 0xbb, 0x27, 0x2e, 0x50, 0x30, 0x36, 0x1c,
  0x27, 0x20, 0x24, 0x0d, 0x26, 0xff, 0xff, 0xff, 0x04, 0x00, 0x00, 0x00,
  0x08, 0x00, 0x00, 0x00, 0x10, 0x00, 0x00, 0x00, 0x06, 0x00, 0x00, 0x00,
  0x08, 0xff, 0xff, 0xff, 0x0c, 0xff, 0xff, 0xff, 0x0f, 0x00, 0x00, 0x00,
  0x4d, 0x4c, 0x49, 0x52, 0x20, 0x43, 0x6f, 0x6e, 0x76, 0x65, 0x72, 0x74,
  0x65, 0x64, 0x2e, 0x00, 0x01, 0x00, 0x00, 0x00, 0x14, 0x00, 0x00, 0x00,
  0x00, 0x00, 0x0e, 0x00, 0x18, 0x00, 0x14, 0x00, 0x10, 0x00, 0x0c, 0x00,
  0x08, 0x00, 0x04, 0x00, 0x0e, 0x00, 0x00, 0x00, 0x14, 0x00, 0x00, 0x00,
  0x1c, 0x00, 0x00, 0x00, 0x24, 0x01, 0x00, 0x00, 0x28, 0x01, 0x00, 0x00,
  0x2c, 0x01, 0x00, 0x00, 0x04, 0x00, 0x00, 0x00, 0x6d, 0x61, 0x69, 0x6e,
  0x00, 0x00, 0x00, 0x00, 0x04, 0x00, 0x00, 0x00, 0xcc, 0x00, 0x00, 0x00,
  0x84, 0x00, 0x00, 0x00, 0x48, 0x00, 0x00, 0x00, 0x04, 0x00, 0x00, 0x00,
  0x52, 0xff, 0xff, 0xff, 0x10, 0x00, 0x00, 0x00, 0x00, 0x00, 0x00, 0x08,
  0x0c, 0x00, 0x00, 0x00, 0x10, 0x00, 0x00, 0x00, 0x88, 0xff, 0xff, 0xff,
  0x01, 0x00, 0x00, 0x00, 0x0a, 0x00, 0x00, 0x00, 0x03, 0x00, 0x00, 0x00,
  0x09, 0x00, 0x00, 0x00, 0x02, 0x00, 0x00, 0x00, 0x01, 0x00, 0x00, 0x00,
  0x00, 0x00, 0x0e, 0x00, 0x1a, 0x00, 0x14, 0x00, 0x10, 0x00, 0x0c, 0x00,
  0x0b, 0x00, 0x04, 0x00, 0x0e, 0x00, 0x00, 0x00, 0x1c, 0x00, 0x00, 0x00,
  0x00, 0x00, 0x00, 0x4b, 0x1c, 0x00, 0x00, 0x00, 0x20, 0x00, 0x00, 0x00,
  0x01, 0x00, 0x00, 0x00, 0x00, 0x00, 0x06, 0x00, 0x08, 0x00, 0x04, 0x00,
  0x06, 0x00, 0x00, 0x00, 0xcd, 0xcc, 0xcc, 0x3d, 0x01, 0x00, 0x00, 0x00,
  0x09, 0x00, 0x00, 0x00, 0x01, 0x00, 0x00, 0x00, 0x08, 0x00, 0x00, 0x00,
  0xca, 0xff, 0xff, 0xff, 0x14, 0x00, 0x00, 0x00, 0x00, 0x00, 0x00, 0x08,
  0x10, 0x00, 0x00, 0x00, 0x14, 0x00, 0x00, 0x00, 0x04, 0x00, 0x04, 0x00,
  0x04, 0x00, 0x00, 0x00, 0x01, 0x00, 0x00, 0x00, 0x08, 0x00, 0x00, 0x00,
  0x03, 0x00, 0x00, 0x00, 0x07, 0x00, 0x00, 0x00, 0x04, 0x00, 0x00, 0x00,
  0x03, 0x00, 0x00, 0x00, 0x00, 0x00, 0x0e, 0x00, 0x16, 0x00, 0x00, 0x00,
  0x10, 0x00, 0x0c, 0x00, 0x0b, 0x00, 0x04, 0x00, 0x0e, 0x00, 0x00, 0x00,
  0x18, 0x00, 0x00, 0x00, 0x00, 0x00, 0x00, 0x08, 0x18, 0x00, 0x00, 0x00,
  0x1c, 0x00, 0x00, 0x00, 0x00, 0x00, 0x06, 0x00, 0x08, 0x00, 0x07, 0x00,
  0x06, 0x00, 0x00, 0x00, 0x00, 0x00, 0x00, 0x03, 0x01, 0x00, 0x00, 0x00,
  0x07, 0x00, 0x00, 0x00, 0x03, 0x00, 0x00, 0x00, 0x00, 0x00, 0x00, 0x00,
  0x06, 0x00, 0x00, 0x00, 0x05, 0x00, 0x00, 0x00, 0x01, 0x00, 0x00, 0x00,
  0x0a, 0x00, 0x00, 0x00, 0x01, 0x00, 0x00, 0x00, 0x00, 0x00, 0x00, 0x00,
  0x0b, 0x00, 0x00, 0x00, 0xe0, 0x0d, 0x00, 0x00, 0x58, 0x0d, 0x00, 0x00,
  0xcc, 0x0c, 0x00, 0x00, 0xf8, 0x0a, 0x00, 0x00, 0x1c, 0x09, 0x00, 0x00,
  0xc8, 0x05, 0x00, 0x00, 0x6c, 0x02, 0x00, 0x00, 0xb0, 0x01, 0x00, 0x00,
  0x0c, 0x01, 0x00, 0x00, 0x80, 0x00, 0x00, 0x00, 0x04, 0x00, 0x00, 0x00,
  0x62, 0xf2, 0xff, 0xff, 0x00, 0x00, 0x00, 0x01, 0x18, 0x00, 0x00, 0x00,
  0x20, 0x00, 0x00, 0x00, 0x3c, 0x00, 0x00, 0x00, 0x0b, 0x00, 0x00, 0x00,
  0x00, 0x00, 0x00, 0x09, 0x50, 0x00, 0x00, 0x00, 0x02, 0x00, 0x00, 0x00,
  0xff, 0xff, 0xff, 0xff, 0x02, 0x00, 0x00, 0x00, 0x4c, 0xf2, 0xff, 0xff,
  0x08, 0x00, 0x00, 0x00, 0x10, 0x00, 0x00, 0x00, 0x01, 0x00, 0x00, 0x00,
  0x80, 0xff, 0xff, 0xff, 0xff, 0xff, 0xff, 0xff, 0x01, 0x00, 0x00, 0x00,
  0xc4, 0xf7, 0x8f, 0x41, 0x1b, 0x00, 0x00, 0x00, 0x53, 0x74, 0x61, 0x74,
  0x65, 0x66, 0x75, 0x6c, 0x50, 0x61, 0x72, 0x74, 0x69, 0x74, 0x69, 0x6f,
  0x6e, 0x65, 0x64, 0x43, 0x61, 0x6c, 0x6c, 0x5f, 0x31, 0x3a, 0x30, 0x00,
  0x02, 0x00, 0x00, 0x00, 0x01, 0x00, 0x00, 0x00, 0x02, 0x00, 0x00, 0x00,
  0xda, 0xf2, 0xff, 0xff, 0x00, 0x00, 0x00, 0x01, 0x18, 0x00, 0x00, 0x00,
  0x20, 0x00, 0x00, 0x00, 0x40, 0x00, 0x00, 0x00, 0x0a, 0x00, 0x00, 0x00,
  0x00, 0x00, 0x00, 0x09, 0x60, 0x00, 0x00, 0x00, 0x02, 0x00, 0x00, 0x00,
  0xff, 0xff, 0xff, 0xff, 0x20, 0x00, 0x00, 0x00, 0xc4, 0xf2, 0xff, 0xff,
  0x08, 0x00, 0x00, 0x00, 0x14, 0x00, 0x00, 0x00, 0x01, 0x00, 0x00, 0x00,
  0x8f, 0xff, 0xff, 0xff, 0xff, 0xff, 0xff, 0xff, 0x00, 0x00, 0x00, 0x00,
  0x01, 0x00, 0x00, 0x00, 0x98, 0x12, 0x9f, 0x3f, 0x24, 0x00, 0x00, 0x00,
  0x73, 0x65, 0x71, 0x75, 0x65, 0x6e, 0x74, 0x69, 0x61, 0x6c, 0x5f, 0x31,
  0x2f, 0x6c, 0x65, 0x61, 0x6b, 0x79, 0x5f, 0x72, 0x65, 0x5f, 0x6c, 0x75,
  0x5f, 0x31, 0x2f, 0x4c, 0x65, 0x61, 0x6b, 0x79, 0x52, 0x65, 0x6c, 0x75,
  0x00, 0x00, 0x00, 0x00, 0x02, 0x00, 0x00, 0x00, 0x01, 0x00, 0x00, 0x00,
  0x20, 0x00, 0x00, 0x00, 0x62, 0xf3, 0xff, 0xff, 0x00, 0x00, 0x00, 0x01,
  0x18, 0x00, 0x00, 0x00, 0x20, 0x00, 0x00, 0x00, 0x40, 0x00, 0x00, 0x00,
  0x09, 0x00, 0x00, 0x00, 0x00, 0x00, 0x00, 0x09, 0x78, 0x00, 0x00, 0x00,
  0x02, 0x00, 0x00, 0x00, 0xff, 0xff, 0xff, 0xff, 0x20, 0x00, 0x00, 0x00,
  0x4c, 0xf3, 0xff, 0xff, 0x08, 0x00, 0x00, 0x00, 0x14, 0x00, 0x00, 0x00,
  0x01, 0x00, 0x00, 0x00, 0xe3, 0xff, 0xff, 0xff, 0xff, 0xff, 0xff, 0xff,
  0x00, 0x00, 0x00, 0x00, 0x01, 0x00, 0x00, 0x00, 0x6e, 0xa3, 0xf4, 0x3f,
  0x3c, 0x00, 0x00, 0x00, 0x73, 0x65, 0x71, 0x75, 0x65, 0x6e, 0x74, 0x69,
  0x61, 0x6c, 0x5f, 0x31, 0x2f, 0x6c, 0x69, 0x6e, 0x65, 0x61, 0x72, 0x32,
  0x5f, 0x31, 0x2f, 0x4d, 0x61, 0x74, 0x4d, 0x75, 0x6c, 0x3b, 0x73, 0x65,
  0x71, 0x75, 0x65, 0x6e, 0x74, 0x69, 0x61, 0x6c, 0x5f, 0x31, 0x2f, 0x6c,
  0x69, 0x6e, 0x65, 0x61, 0x72, 0x32, 0x5f, 0x31, 0x2f, 0x42, 0x69, 0x61,
  0x73, 0x41, 0x64, 0x64, 0x00, 0x00, 0x00, 0x00, 0x02, 0x00, 0x00, 0x00,
  0x01, 0x00, 0x00, 0x00, 0x20, 0x00, 0x00, 0x00, 0x02, 0xf4, 0xff, 0xff,
  0x00, 0x00, 0x00, 0x01, 0x18, 0x00, 0x00, 0x00, 0x20, 0x00, 0x00, 0x00,
  0x3c, 0x00, 0x00, 0x00, 0x08, 0x00, 0x00, 0x00, 0x00, 0x00, 0x00, 0x09,
  0x90, 0x00, 0x00, 0x00, 0x02, 0x00, 0x00, 0x00, 0xff, 0xff, 0xff, 0xff,
  0x40, 0x00, 0x00, 0x00, 0xec, 0xf3, 0xff, 0xff, 0x08, 0x00, 0x00, 0x00,
  0x10, 0x00, 0x00, 0x00, 0x01, 0x00, 0x00, 0x00, 0x80, 0xff, 0xff, 0xff,
  0xff, 0xff, 0xff, 0xff, 0x01, 0x00, 0x00, 0x00, 0xc1, 0xc0, 0xc0, 0x3c,
  0x59, 0x00, 0x00, 0x00, 0x73, 0x65, 0x71, 0x75, 0x65, 0x6e, 0x74, 0x69,
  0x61, 0x6c, 0x5f, 0x31, 0x2f, 0x6c, 0x69, 0x6e, 0x65, 0x61, 0x72, 0x31,
  0x5f, 0x31, 0x2f, 0x4d, 0x61, 0x74, 0x4d, 0x75, 0x6c, 0x3b, 0x73, 0x65,
  0x71, 0x75, 0x65, 0x6e, 0x74, 0x69, 0x61, 0x6c, 0x5f, 0x31, 0x2f, 0x6c,
  0x69, 0x6e, 0x65, 0x61, 0x72, 0x31, 0x5f, 0x31, 0x2f, 0x52, 0x65, 0x6c,
  0x75, 0x36, 0x3b, 0x73, 0x65, 0x71, 0x75, 0x65, 0x6e, 0x74, 0x69, 0x61,
  0x6c, 0x5f, 0x31, 0x2f, 0x6c, 0x69, 0x6e, 0x65, 0x61, 0x72, 0x31, 0x5f,
  0x31, 0x2f, 0x42, 0x69, 0x61, 0x73, 0x41, 0x64, 0x64, 0x00, 0x00, 0x00,
  0x02, 0x00, 0x00, 0x00, 0x01, 0x00, 0x00, 0x00, 0x40, 0x00, 0x00, 0x00,
  0x3e, 0xf5, 0xff, 0xff, 0x00, 0x00, 0x00, 0x01, 0x14, 0x00, 0x00, 0x00,
  0x28, 0x03, 0x00, 0x00, 0x07, 0x00, 0x00, 0x00, 0x00, 0x00, 0x00, 0x09,
  0x34, 0x03, 0x00, 0x00, 0x94, 0xf4, 0xff, 0xff, 0x08, 0x00, 0x00, 0x00,
  0x0c, 0x02, 0x00, 0x00, 0x40, 0x00, 0x00, 0x00, 0x00, 0x00, 0x00, 0x00,
  0x00, 0x00, 0x00, 0x00, 0x00, 0x00, 0x00, 0x00, 0x00, 0x00, 0x00, 0x00,
  0x00, 0x00, 0x00, 0x00, 0x00, 0x00, 0x00, 0x00, 0x00, 0x00, 0x00, 0x00,
  0x00, 0x00, 0x00, 0x00, 0x00, 0x00, 0x00, 0x00, 0x00, 0x00, 0x00, 0x00,
  0x00, 0x00, 0x00, 0x00, 0x00, 0x00, 0x00, 0x00, 0x00, 0x00, 0x00, 0x00,
  0x00, 0x00, 0x00, 0x00, 0x00, 0x00, 0x00, 0x00, 0x00, 0x00, 0x00, 0x00,
  0x00, 0x00, 0x00, 0x00, 0x00, 0x00, 0x00, 0x00, 0x00, 0x00, 0x00, 0x00,
  0x00, 0x00, 0x00, 0x00, 0x00, 0x00, 0x00, 0x00, 0x00, 0x00, 0x00, 0x00,
  0x00, 0x00, 0x00, 0x00, 0x00, 0x00, 0x00, 0x00, 0x00, 0x00, 0x00, 0x00,
  0x00, 0x00, 0x00, 0x00, 0x00, 0x00, 0x00, 0x00, 0x00, 0x00, 0x00, 0x00,
  0x00, 0x00, 0x00, 0x00, 0x00, 0x00, 0x00, 0x00, 0x00, 0x00, 0x00, 0x00,
  0x00, 0x00, 0x00, 0x00, 0x00, 0x00, 0x00, 0x00, 0x00, 0x00, 0x00, 0x00,
  0x00, 0x00, 0x00, 0x00, 0x00, 0x00, 0x00, 0x00, 0x00, 0x00, 0x00, 0x00,
  0x00, 0x00, 0x00, 0x00, 0x00, 0x00, 0x00, 0x00, 0x00, 0x00, 0x00, 0x00,
  0x00, 0x00, 0x00, 0x00, 0x00, 0x00, 0x00, 0x00, 0x00, 0x00, 0x00, 0x00,
  0x00, 0x00, 0x00, 0x00, 0x00, 0x00, 0x00, 0x00, 0x00, 0x00, 0x00, 0x00,
  0x00, 0x00, 0x00, 0x00, 0x00, 0x00, 0x00, 0x00, 0x00, 0x00, 0x00, 0x00,
  0x00, 0x00, 0x00, 0x00, 0x00, 0x00, 0x00, 0x00, 0x00, 0x00, 0x00, 0x00,
  0x00, 0x00, 0x00, 0x00, 0x00, 0x00, 0x00, 0x00, 0x00, 0x00, 0x00, 0x00,
  0x00, 0x00, 0x00, 0x00, 0x00, 0x00, 0x00, 0x00, 0x00, 0x00, 0x00, 0x00,
  0x00, 0x00, 0x00, 0x00, 0x00, 0x00, 0x00, 0x00, 0x00, 0x00, 0x00, 0x00,
  0x00, 0x00, 0x00, 0x00, 0x00, 0x00, 0x00, 0x00, 0x00, 0x00, 0x00, 0x00,
  0x00, 0x00, 0x00, 0x00, 0x00, 0x00, 0x00, 0x00, 0x00, 0x00, 0x00, 0x00,
  0x00, 0x00, 0x00, 0x00, 0x00, 0x00, 0x00, 0x00, 0x00, 0x00, 0x00, 0x00,
  0x00, 0x00, 0x00, 0x00, 0x00, 0x00, 0x00, 0x00, 0x00, 0x00, 0x00, 0x00,
  0x00, 0x00, 0x00, 0x00, 0x00, 0x00, 0x00, 0x00, 0x00, 0x00, 0x00, 0x00,
  0x00, 0x00, 0x00, 0x00, 0x00, 0x00, 0x00, 0x00, 0x00, 0x00, 0x00, 0x00,
  0x00, 0x00, 0x00, 0x00, 0x00, 0x00, 0x00, 0x00, 0x00, 0x00, 0x00, 0x00,
  0x00, 0x00, 0x00, 0x00, 0x00, 0x00, 0x00, 0x00, 0x00, 0x00, 0x00, 0x00,
  0x00, 0x00, 0x00, 0x00, 0x00, 0x00, 0x00, 0x00, 0x00, 0x00, 0x00, 0x00,
  0x00, 0x00, 0x00, 0x00, 0x00, 0x00, 0x00, 0x00, 0x00, 0x00, 0x00, 0x00,
  0x00, 0x00, 0x00, 0x00, 0x00, 0x00, 0x00, 0x00, 0x00, 0x00, 0x00, 0x00,
  0x00, 0x00, 0x00, 0x00, 0x00, 0x00, 0x00, 0x00, 0x00, 0x00, 0x00, 0x00,
  0x00, 0x00, 0x00, 0x00, 0x00, 0x00, 0x00, 0x00, 0x00, 0x00, 0x00, 0x00,
  0x00, 0x00, 0x00, 0x00, 0x00, 0x00, 0x00, 0x00, 0x00, 0x00, 0x00, 0x00,
  0x00, 0x00, 0x00, 0x00, 0x00, 0x00, 0x00, 0x00, 0x00, 0x00, 0x00, 0x00,
  0x00, 0x00, 0x00, 0x00, 0x00, 0x00, 0x00, 0x00, 0x00, 0x00, 0x00, 0x00,
  0x00, 0x00, 0x00, 0x00, 0x00, 0x00, 0x00, 0x00, 0x00, 0x00, 0x00, 0x00,
  0x00, 0x00, 0x00, 0x00, 0x00, 0x00, 0x00, 0x00, 0x00, 0x00, 0x00, 0x00,
  0x00, 0x00, 0x00, 0x00, 0x00, 0x00, 0x00, 0x00, 0x00, 0x00, 0x00, 0x00,
  0x00, 0x00, 0x00, 0x00, 0x00, 0x00, 0x00, 0x00, 0x00, 0x00, 0x00, 0x00,
  0x00, 0x00, 0x00, 0x00, 0x00, 0x00, 0x00, 0x00, 0x00, 0x00, 0x00, 0x00,
  0x00, 0x00, 0x00, 0x00, 0x00, 0x00, 0x00, 0x00, 0x00, 0x00, 0x00, 0x00,
  0x00, 0x00, 0x00, 0x00, 0x00, 0x00, 0x00, 0x00, 0x40, 0x00, 0x00, 0x00,
  0x09, 0xe4, 0x58, 0x3c, 0x97, 0xc0, 0x63, 0x3c, 0x06, 0x05, 0x44, 0x3c,
  0xb3, 0x98, 0x26, 0x3c, 0xa2, 0x6e, 0x17, 0x3c, 0xe8, 0x59, 0x49, 0x3c,
  0xaa, 0x72, 0x6e, 0x3c, 0x55, 0xf5, 0x9f, 0x3c, 0x19, 0x7a, 0x49, 0x3c,
  0x16, 0x47, 0x4d, 0x3c, 0xe5, 0x0c, 0x0c, 0x3b, 0x28, 0x3f, 0x17, 0x3d,
  0x8d, 0xd4, 0xfc, 0x3a, 0x50, 0xd5, 0xcb, 0x3c, 0x64, 0xc3, 0x55, 0x3c,
  0xd8, 0xd0, 0x59, 0x3c, 0xd2, 0xe3, 0x4c, 0x3c, 0x25, 0xf0, 0x58, 0x3c,
  0xac, 0x6c, 0xc3, 0x3c, 0x3e, 0x3f, 0x68, 0x3c, 0x57, 0xf4, 0xa7, 0x3c,
  0xf7, 0x44, 0x18, 0x3c, 0x82, 0x8c, 0x96, 0x3c, 0x6a, 0x59, 0xb0, 0x3c,
  0xd0, 0xe7, 0x1c, 0x3d, 0xe0, 0xe8, 0x4a, 0x3d, 0x54, 0xb7, 0x64, 0x3c,
  0xf2, 0xb5, 0x0a, 0x3d, 0x54, 0x4e, 0x8f, 0x3c, 0x13, 0xe2, 0x93, 0x3c,
  0xaa, 0xdf, 0x6c, 0x3c, 0x93, 0x7f, 0xb9, 0x3c, 0xde, 0xf4, 0x40, 0x3c,
  0xe2, 0x21, 0x44, 0x3c, 0xa2, 0xd5, 0x64, 0x3c, 0x7a, 0x0e, 0x83, 0x3c,
  0x5a, 0xbd, 0x5d, 0x3c, 0xa4, 0x60, 0x3d, 0x3c, 0x01, 0xa5, 0x49, 0x3c,
  0x2a, 0xce, 0x82, 0x3c, 0xa5, 0x2f, 0x45, 0x3c, 0xef, 0x24, 0x38, 0x3c,
  0xc1, 0xf2, 0x77, 0x3c, 0x06, 0x44, 0x58, 0x3c, 0xeb, 0x5e, 0x89, 0x3c,
  0xe8, 0x22, 0xa8, 0x3c, 0xcb, 0x19, 0x3e, 0x3c, 0xbd, 0x91, 0x44, 0x3c,
  0xbd, 0xa5, 0x38, 0x3c, 0xac, 0xd2, 0xca, 0x3c, 0xb4, 0xac, 0x05, 0x3b,
  0xc7, 0xe2, 0x44, 0x3c, 0xda, 0x08, 0x5c, 0x3c, 0x9d, 0x89, 0x50, 0x3c,
  0xdf, 0xa3, 0x57, 0x3c, 0x00, 0xd3, 0xaf, 0x3c, 0x9c, 0x7c, 0x1a, 0x3c,
  0xfa, 0xf5, 0x43, 0x3c, 0x8d, 0x4f, 0x35, 0x3c, 0x0b, 0xcb, 0x43, 0x3c,
  0x0a, 0x17, 0xa2, 0x3c, 0x6c, 0x0c, 0xac, 0x3c, 0xf9, 0xbd, 0x94, 0x3c,
  0xce, 0x50, 0xa6, 0x3c, 0x12, 0x00, 0x00, 0x00, 0x74, 0x66, 0x6c, 0x2e,
  0x70, 0x73, 0x65, 0x75, 0x64, 0x6f, 0x5f, 0x71, 0x63, 0x6f, 0x6e, 0x73,
  0x74, 0x35, 0x00, 0x00, 0x02, 0x00, 0x00, 0x00, 0x40, 0x00, 0x00, 0x00,
  0x24, 0x00, 0x00, 0x00, 0x96, 0xf8, 0xff, 0xff, 0x00, 0x00, 0x00, 0x01,
  0x14, 0x00, 0x00, 0x00, 0x24, 0x03, 0x00, 0x00, 0x06, 0x00, 0x00, 0x00,
  0x00, 0x00, 0x00, 0x02, 0x30, 0x03, 0x00, 0x00, 0xec, 0xf7, 0xff, 0xff,
  0x08, 0x00, 0x00, 0x00, 0x08, 0x02, 0x00, 0x00, 0x40, 0x00, 0x00, 0x00,
  0x00, 0x00, 0x00, 0x00, 0x00, 0x00, 0x00, 0x00, 0x00, 0x00, 0x00, 0x00,
  0x00, 0x00, 0x00, 0x00, 0x00, 0x00, 0x00, 0x00, 0x00, 0x00, 0x00, 0x00,
  0x00, 0x00, 0x00, 0x00, 0x00, 0x00, 0x00, 0x00, 0x00, 0x00, 0x00, 0x00,
  0x00, 0x00, 0x00, 0x00, 0x00, 0x00, 0x00, 0x00, 0x00, 0x00, 0x00, 0x00,
  0x00, 0x00, 0x00, 0x00, 0x00, 0x00, 0x00, 0x00, 0x00, 0x00, 0x00, 0x00,
  0x00, 0x00, 0x00, 0x00, 0x00, 0x00, 0x00, 0x00, 0x00, 0x00, 0x00, 0x00,
  0x00, 0x00, 0x00, 0x00, 0x00, 0x00, 0x00, 0x00, 0x00, 0x00, 0x00, 0x00,
  0x00, 0x00, 0x00, 0x00, 0x00, 0x00, 0x00, 0x00, 0x00, 0x00, 0x00, 0x00,
  0x00, 0x00, 0x00, 0x00, 0x00, 0x00, 0x00, 0x00, 0x00, 0x00, 0x00, 0x00,
  0x00, 0x00, 0x00, 0x00, 0x00, 0x00, 0x00, 0x00, 0x00, 0x00, 0x00, 0x00,
  0x00, 0x00, 0x00, 0x00, 0x00, 0x00, 0x00, 0x00, 0x00, 0x00, 0x00, 0x00,
  0x00, 0x00, 0x00, 0x00, 0x00, 0x00, 0x00, 0x00, 0x00, 0x00, 0x00, 0x00,
  0x00, 0x00, 0x00, 0x00, 0x00, 0x00, 0x00, 0x00, 0x00, 0x00, 0x00, 0x00,
  0x00, 0x00, 0x00, 0x00, 0x00, 0x00, 0x00, 0x00, 0x00, 0x00, 0x00, 0x00,
  0x00, 0x00, 0x00, 0x00, 0x00, 0x00, 0x00, 0x00, 0x00, 0x00, 0x00, 0x00,
  0x00, 0x00, 0x00, 0x00, 0x00, 0x00, 0x00, 0x00, 0x00, 0x00, 0x00, 0x00,
  0x00, 0x00, 0x00, 0x00, 0x00, 0x00, 0x00, 0x00, 0x00, 0x00, 0x00, 0x00,
  0x00, 0x00, 0x00, 0x00, 0x00, 0x00, 0x00, 0x00, 0x00, 0x00, 0x00, 0x00,
  0x00, 0x00, 0x00, 0x00, 0x00, 0x00, 0x00, 0x00, 0x00, 0x00, 0x00, 0x00,
  0x00, 0x00, 0x00, 0x00, 0x00, 0x00, 0x00, 0x00, 0x00, 0x00, 0x00, 0x00,
  0x00, 0x00, 0x00, 0x00, 0x00, 0x00, 0x00, 0x00, 0x00, 0x00, 0x00, 0x00,
  0x00, 0x00, 0x00, 0x00, 0x00, 0x00, 0x00, 0x00, 0x00, 0x00, 0x00, 0x00,
  0x00, 0x00, 0x00, 0x00, 0x00, 0x00, 0x00, 0x00, 0x00, 0x00, 0x00, 0x00,
  0x00, 0x00, 0x00, 0x00, 0x00, 0x00, 0x00, 0x00, 0x00, 0x00, 0x00, 0x00,
  0x00, 0x00, 0x00, 0x00, 0x00, 0x00, 0x00, 0x00, 0x00, 0x00, 0x00, 0x00,
  0x00, 0x00, 0x00, 0x00, 0x00, 0x00, 0x00, 0x00, 0x00, 0x00, 0x00, 0x00,
  0x00, 0x00, 0x00, 0x00, 0x00, 0x00, 0x00, 0x00, 0x00, 0x00, 0x00, 0x00,
  0x00, 0x00, 0x00, 0x00, 0x00, 0x00, 0x00, 0x00, 0x00, 0x00, 0x00, 0x00,
  0x00, 0x00, 0x00, 0x00, 0x00, 0x00, 0x00, 0x00, 0x00, 0x00, 0x00, 0x00,
  0x00, 0x00, 0x00, 0x00, 0x00, 0x00, 0x00, 0x00, 0x00, 0x00, 0x00, 0x00,
  0x00, 0x00, 0x00, 0x00, 0x00, 0x00, 0x00, 0x00, 0x00, 0x00, 0x00, 0x00,
  0x00, 0x00, 0x00, 0x00, 0x00, 0x00, 0x00, 0x00, 0x00, 0x00, 0x00, 0x00,
  0x00, 0x00, 0x00, 0x00, 0x00, 0x00, 0x00, 0x00, 0x00, 0x00, 0x00, 0x00,
  0x00, 0x00, 0x00, 0x00, 0x00, 0x00, 0x00, 0x00, 0x00, 0x00, 0x00, 0x00,
  0x00, 0x00, 0x00, 0x00, 0x00, 0x00, 0x00, 0x00, 0x00, 0x00, 0x00, 0x00,
  0x00, 0x00, 0x00, 0x00, 0x00, 0x00, 0x00, 0x00, 0x00, 0x00, 0x00, 0x00,
  0x00, 0x00, 0x00, 0x00, 0x00, 0x00, 0x00, 0x00, 0x00, 0x00, 0x00, 0x00,
  0x00, 0x00, 0x00, 0x00, 0x00, 0x00, 0x00, 0x00, 0x00, 0x00, 0x00, 0x00,
  0x00, 0x00, 0x00, 0x00, 0x00, 0x00, 0x00, 0x00, 0x00, 0x00, 0x00, 0x00,
  0x00, 0x00, 0x00, 0x00, 0x00, 0x00, 0x00, 0x00, 0x00, 0x00, 0x00, 0x00,
  0x00, 0x00, 0x00, 0x00, 0x00, 0x00, 0x00, 0x00, 0x00, 0x00, 0x00, 0x00,
  0x00, 0x00, 0x00, 0x00, 0x00, 0x00, 0x00, 0x00, 0x00, 0x00, 0x00, 0x00,
  0x00, 0x00, 0x00, 0x00, 0x00, 0x00, 0x00, 0x00, 0x40, 0x00, 0x00, 0x00,
  0x1b, 0xbb, 0x59, 0x38, 0x6e, 0xa2, 0x64, 0x38, 0x66, 0xc7, 0x44, 0x38,
  0xe6, 0x3d, 0x27, 0x38, 0xcb, 0x04, 0x18, 0x38, 0x91, 0x21, 0x4a, 0x38,
  0x1c, 0x5f, 0x6f, 0x38, 0xf3, 0x93, 0xa0, 0x38, 0xe2, 0x41, 0x4a, 0x38,
  0xa4, 0x12, 0x4e, 0x38, 0xc5, 0x97, 0x0c, 0x37, 0x22, 0xd5, 0x17, 0x39,
  0x42, 0xcf, 0xfd, 0x36, 0x6f, 0x9f, 0xcc, 0x38, 0x5c, 0x97, 0x56, 0x38,
  0xd5, 0xa8, 0x5a, 0x38, 0xfe, 0xae, 0x4d, 0x38, 0x43, 0xc7, 0x59, 0x38,
  0x75, 0x2e, 0xc4, 0x38, 0x8a, 0x25, 0x69, 0x38, 0xe3, 0x9a, 0xa8, 0x38,
  0xf5, 0xdb, 0x18, 0x38, 0xcb, 0x21, 0x97, 0x38, 0x49, 0x08, 0xb1, 0x38,
  0x67, 0x83, 0x1d, 0x39, 0x15, 0xb2, 0x4b, 0x39, 0x20, 0x9a, 0x65, 0x38,
  0x7e, 0x3f, 0x0b, 0x39, 0x6e, 0xdc, 0x8f, 0x38, 0xb7, 0x74, 0x94, 0x38,
  0x8d, 0xca, 0x6d, 0x38, 0x84, 0x37, 0xba, 0x38, 0x34, 0xb4, 0x41, 0x38,
  0x5f, 0xe4, 0x44, 0x38, 0x8c, 0xb8, 0x65, 0x38, 0x6f, 0x90, 0x83, 0x38,
  0x3b, 0x99, 0x5e, 0x38, 0x6e, 0x1c, 0x3e, 0x38, 0xf5, 0x6c, 0x4a, 0x38,
  0xdf, 0x4f, 0x83, 0x38, 0x2d, 0xf3, 0x45, 0x38, 0x88, 0xdb, 0x38, 0x38,
  0x9f, 0xe8, 0x78, 0x38, 0x79, 0x1a, 0x59, 0x38, 0x23, 0xe7, 0x89, 0x38,
  0xa2, 0xc9, 0xa8, 0x38, 0x4c, 0xd6, 0x3e, 0x38, 0xa8, 0x54, 0x45, 0x38,
  0xd6, 0x5c, 0x39, 0x38, 0xcb, 0x9b, 0xcb, 0x38, 0x42, 0x31, 0x06, 0x37,
  0x03, 0xa6, 0x45, 0x38, 0x0a, 0xe3, 0x5c, 0x38, 0x67, 0x58, 0x51, 0x38,
  0xb4, 0x79, 0x58, 0x38, 0x59, 0x81, 0xb0, 0x38, 0xcd, 0x15, 0x1b, 0x38,
  0x4b, 0xb8, 0x44, 0x38, 0x57, 0x03, 0x36, 0x38, 0x31, 0x8d, 0x44, 0x38,
  0xc5, 0xb7, 0xa2, 0x38, 0x07, 0xb7, 0xac, 0x38, 0x77, 0x51, 0x95, 0x38,
  0xb9, 0xf5, 0xa6, 0x38, 0x12, 0x00, 0x00, 0x00, 0x74, 0x66, 0x6c, 0x2e,
  0x70, 0x73, 0x65, 0x75, 0x64, 0x6f, 0x5f, 0x71, 0x63, 0x6f, 0x6e, 0x73,
  0x74, 0x34, 0x00, 0x00, 0x01, 0x00, 0x00, 0x00, 0x40, 0x00, 0x00, 0x00,
  0xe6, 0xfb, 0xff, 0xff, 0x00, 0x00, 0x00, 0x01, 0x14, 0x00, 0x00, 0x00,
  0xa8, 0x01, 0x00, 0x00, 0x05, 0x00, 0x00, 0x00, 0x00, 0x00, 0x00, 0x09,
  0xb4, 0x01, 0x00, 0x00, 0x3c, 0xfb, 0xff, 0xff, 0x08, 0x00, 0x00, 0x00,
  0x0c, 0x01, 0x00, 0x00, 0x20, 0x00, 0x00, 0x00, 0x00, 0x00, 0x00, 0x00,
  0x00, 0x00, 0x00, 0x00, 0x00, 0x00, 0x00, 0x00, 0x00, 0x00, 0x00, 0x00,
  0x00, 0x00, 0x00, 0x00, 0x00, 0x00, 0x00, 0x00, 0x00, 0x00, 0x00, 0x00,
  0x00, 0x00, 0x00, 0x00, 0x00, 0x00, 0x00, 0x00, 0x00, 0x00, 0x00, 0x00,
  0x00, 0x00, 0x00, 0x00, 0x00, 0x00, 0x00, 0x00, 0x00, 0x00, 0x00, 0x00,
  0x00, 0x00, 0x00, 0x00, 0x00, 0x00, 0x00, 0x00, 0x00, 0x00, 0x00, 0x00,
  0x00, 0x00, 0x00, 0x00, 0x00, 0x00, 0x00, 0x00, 0x00, 0x00, 0x00, 0x00,
  0x00, 0x00, 0x00, 0x00, 0x00, 0x00, 0x00, 0x00, 0x00, 0x00, 0x00, 0x00,
  0x00, 0x00, 0x00, 0x00, 0x00, 0x00, 0x00, 0x00, 0x00, 0x00, 0x00, 0x00,
  0x00, 0x00, 0x00, 0x00, 0x00, 0x00, 0x00, 0x00, 0x00, 0x00, 0x00, 0x00,
  0x00, 0x00, 0x00, 0x00, 0x00, 0x00, 0x00, 0x00, 0x00, 0x00, 0x00, 0x00,
  0x00, 0x00, 0x00, 0x00, 0x00, 0x00, 0x00, 0x00, 0x00, 0x00, 0x00, 0x00,
  0x00, 0x00, 0x00, 0x00, 0x00, 0x00, 0x00, 0x00, 0x00, 0x00, 0x00, 0x00,
  0x00, 0x00, 0x00, 0x00, 0x00, 0x00, 0x00, 0x00, 0x00, 0x00, 0x00, 0x00,
  0x00, 0x00, 0x00, 0x00, 0x00, 0x00, 0x00, 0x00, 0x00, 0x00, 0x00, 0x00,
  0x00, 0x00, 0x00, 0x00, 0x00, 0x00, 0x00, 0x00, 0x00, 0x00, 0x00, 0x00,
  0x00, 0x00, 0x00, 0x00, 0x00, 0x00, 0x00, 0x00, 0x00, 0x00, 0x00, 0x00,
  0x00, 0x00, 0x00, 0x00, 0x00, 0x00, 0x00, 0x00, 0x00, 0x00, 0x00, 0x00,
  0x00, 0x00, 0x00, 0x00, 0x00, 0x00, 0x00, 0x00, 0x00, 0x00, 0x00, 0x00,
  0x00, 0x00, 0x00, 0x00, 0x00, 0x00, 0x00, 0x00, 0x00, 0x00, 0x00, 0x00,
  0x00, 0x00, 0x00, 0x00, 0x00, 0x00, 0x00, 0x00, 0x00, 0x00, 0x00, 0x00,
  0x00, 0x00, 0x00, 0x00, 0x00, 0x00, 0x00, 0x00, 0x00, 0x00, 0x00, 0x00,
  0x00, 0x00, 0x00, 0x00, 0x20, 0x00, 0x00, 0x00, 0x71, 0x8b, 0xbd, 0x3c,
  0xa5, 0x1d, 0xa3, 0x3d, 0x08, 0x12, 0x3d, 0x3d, 0xee, 0x0d, 0x04, 0x3d,
  0x7e, 0x14, 0x06, 0x3d, 0x3c, 0xcf, 0xe3, 0x3c, 0x9d, 0x4d, 0x02, 0x3d,
  0x94, 0x0f, 0x0c, 0x3d, 0x7e, 0x28, 0xec, 0x3c, 0xd7, 0x06, 0x0b, 0x3d,
  0x1f, 0x87, 0x21, 0x3d, 0xec, 0x1d, 0x08, 0x3d, 0x94, 0x09, 0x04, 0x3d,
  0xb1, 0x8c, 0x01, 0x3d, 0xe4, 0xa0, 0x04, 0x3d, 0x52, 0x00, 0x0d, 0x3d,
  0x07, 0x92, 0x16, 0x3d, 0x03, 0xc3, 0x0d, 0x3d, 0xb4, 0xef, 0x0b, 0x3d,
  0x84, 0x77, 0x0a, 0x3d, 0xee, 0x20, 0xf1, 0x3c, 0xb7, 0x94, 0xe1, 0x3c,
  0xc4, 0xd4, 0x10, 0x3d, 0x44, 0x3e, 0x0f, 0x3d, 0x60, 0x5b, 0x77, 0x3d,
  0xce, 0x14, 0x29, 0x3d, 0xf9, 0xed, 0x11, 0x3d, 0xcf, 0x4e, 0x01, 0x3d,
  0xd2, 0x87, 0xfe, 0x3c, 0x46, 0x5f, 0x0c, 0x3d, 0x84, 0xd1, 0x01, 0x3d,
  0xd9, 0x81, 0x00, 0x3d, 0x12, 0x00, 0x00, 0x00, 0x74, 0x66, 0x6c, 0x2e,
  0x70, 0x73, 0x65, 0x75, 0x64, 0x6f, 0x5f, 0x71, 0x63, 0x6f, 0x6e, 0x73,
  0x74, 0x33, 0x00, 0x00, 0x02, 0x00, 0x00, 0x00, 0x20, 0x00, 0x00, 0x00,
  0x40, 0x00, 0x00, 0x00, 0xbe, 0xfd, 0xff, 0xff, 0x00, 0x00, 0x00, 0x01,
  0x14, 0x00, 0x00, 0x00, 0xa4, 0x01, 0x00, 0x00, 0x04, 0x00, 0x00, 0x00,
  0x00, 0x00, 0x00, 0x02, 0xb0, 0x01, 0x00, 0x00, 0x14, 0xfd, 0xff, 0xff,
  0x08, 0x00, 0x00, 0x00, 0x08, 0x01, 0x00, 0x00, 0x20, 0x00, 0x00, 0x00,
  0x00, 0x00, 0x00, 0x00, 0x00, 0x00, 0x00, 0x00, 0x00, 0x00, 0x00, 0x00,
  0x00, 0x00, 0x00, 0x00, 0x00, 0x00, 0x00, 0x00, 0x00, 0x00, 0x00, 0x00,
  0x00, 0x00, 0x00, 0x00, 0x00, 0x00, 0x00, 0x00, 0x00, 0x00, 0x00, 0x00,
  0x00, 0x00, 0x00, 0x00, 0x00, 0x00, 0x00, 0x00, 0x00, 0x00, 0x00, 0x00,
  0x00, 0x00, 0x00, 0x00, 0x00, 0x00, 0x00, 0x00, 0x00, 0x00, 0x00, 0x00,
  0x00, 0x00, 0x00, 0x00, 0x00, 0x00, 0x00, 0x00, 0x00, 0x00, 0x00, 0x00,
  0x00, 0x00, 0x00, 0x00, 0x00, 0x00, 0x00, 0x00, 0x00, 0x00, 0x00, 0x00,
  0x00, 0x00, 0x00, 0x00, 0x00, 0x00, 0x00, 0x00, 0x00, 0x00, 0x00, 0x00,
  0x00, 0x00, 0x00, 0x00, 0x00, 0x00, 0x00, 0x00, 0x00, 0x00, 0x00, 0x00,
  0x00, 0x00, 0x00, 0x00, 0x00, 0x00, 0x00, 0x00, 0x00, 0x00, 0x00, 0x00,
  0x00, 0x00, 0x00, 0x00, 0x00, 0x00, 0x00, 0x00, 0x00, 0x00, 0x00, 0x00,
  0x00, 0x00, 0x00, 0x00, 0x00, 0x00, 0x00, 0x00, 0x00, 0x00, 0x00, 0x00,
  0x00, 0x00, 0x00, 0x00, 0x00, 0x00, 0x00, 0x00, 0x00, 0x00, 0x00, 0x00,
  0x00, 0x00, 0x00, 0x00, 0x00, 0x00, 0x00, 0x00, 0x00, 0x00, 0x00, 0x00,
  0x00, 0x00, 0x00, 0x00, 0x00, 0x00, 0x00, 0x00, 0x00, 0x00, 0x00, 0x00,
  0x00, 0x00, 0x00, 0x00, 0x00, 0x00, 0x00, 0x00, 0x00, 0x00, 0x00, 0x00,
  0x00, 0x00, 0x00, 0x00, 0x00, 0x00, 0x00, 0x00, 0x00, 0x00, 0x00, 0x00,
  0x00, 0x00, 0x00, 0x00, 0x00, 0x00, 0x00, 0x00, 0x00, 0x00, 0x00, 0x00,
  0x00, 0x00, 0x00, 0x00, 0x00, 0x00, 0x00, 0x00, 0x00, 0x00, 0x00, 0x00,
  0x00, 0x00, 0x00, 0x00, 0x00, 0x00, 0x00, 0x00, 0x00, 0x00, 0x00, 0x00,
  0x00, 0x00, 0x00, 0x00, 0x00, 0x00, 0x00, 0x00, 0x00, 0x00, 0x00, 0x00,
  0x00, 0x00, 0x00, 0x00, 0x20, 0x00, 0x00, 0x00, 0x4c, 0xb7, 0x0e, 0x3a,
  0x1a, 0xa2, 0xf5, 0x3a, 0xe2, 0x5b, 0x8e, 0x3a, 0xc1, 0xdb, 0x46, 0x3a,
  0xa6, 0xe8, 0x49, 0x3a, 0xf4, 0x86, 0x2b, 0x3a, 0xa4, 0x38, 0x44, 0x3a,
  0x49, 0xea, 0x52, 0x3a, 0x2f, 0xd0, 0x31, 0x3a, 0x9e, 0x5b, 0x51, 0x3a,
  0xed, 0x3d, 0x73, 0x3a, 0xdc, 0xf9, 0x4c, 0x3a, 0x33, 0xd5, 0x46, 0x3a,
  0x20, 0x16, 0x43, 0x3a, 0x0f, 0xb9, 0x47, 0x3a, 0xd0, 0x54, 0x54, 0x3a,
  0xc9, 0xbd, 0x62, 0x3a, 0xff, 0x79, 0x55, 0x3a, 0x49, 0xba, 0x52, 0x3a,
  0xca, 0x83, 0x50, 0x3a, 0x41, 0x8e, 0x35, 0x3a, 0x63, 0xd9, 0x29, 0x3a,
  0x40, 0x19, 0x5a, 0x3a, 0x1b, 0xb5, 0x57, 0x3a, 0xc7, 0x3e, 0xba, 0x3a,
  0xd3, 0x9d, 0x7e, 0x3a, 0xb6, 0xc0, 0x5b, 0x3a, 0xf0, 0xb8, 0x42, 0x3a,
  0x83, 0xa5, 0x3f, 0x3a, 0x4c, 0x62, 0x53, 0x3a, 0xc4, 0x7d, 0x43, 0x3a,
  0x4a, 0x84, 0x41, 0x3a, 0x12, 0x00, 0x00, 0x00, 0x74, 0x66, 0x6c, 0x2e,
  0x70, 0x73, 0x65, 0x75, 0x64, 0x6f, 0x5f, 0x71, 0x63, 0x6f, 0x6e, 0x73,
  0x74, 0x32, 0x00, 0x00, 0x01, 0x00, 0x00, 0x00, 0x20, 0x00, 0x00, 0x00,
  0x8e, 0xff, 0xff, 0xff, 0x00, 0x00, 0x00, 0x01, 0x14, 0x00, 0x00, 0x00,
  0x40, 0x00, 0x00, 0x00, 0x03, 0x00, 0x00, 0x00, 0x00, 0x00, 0x00, 0x09,
  0x4c, 0x00, 0x00, 0x00, 0xe4, 0xfe, 0xff, 0xff, 0x08, 0x00, 0x00, 0x00,
  0x1c, 0x00, 0x00, 0x00, 0x02, 0x00, 0x00, 0x00, 0x00, 0x00, 0x00, 0x00,
  0x00, 0x00, 0x00, 0x00, 0x00, 0x00, 0x00, 0x00, 0x00, 0x00, 0x00, 0x00,
  0x00, 0x00, 0x00, 0x00, 0x02, 0x00, 0x00, 0x00, 0xd6, 0x61, 0x5f, 0x3d,
  0xdc, 0x74, 0xe8, 0x3c, 0x12, 0x00, 0x00, 0x00, 0x74, 0x66, 0x6c, 0x2e,
  0x70, 0x73, 0x65, 0x75, 0x64, 0x6f, 0x5f, 0x71, 0x63, 0x6f, 0x6e, 0x73,
  0x74, 0x31, 0x00, 0x00, 0x02, 0x00, 0x00, 0x00, 0x02, 0x00, 0x00, 0x00,
  0x20, 0x00, 0x00, 0x00, 0x00, 0x00, 0x16, 0x00, 0x1c, 0x00, 0x18, 0x00,
  0x17, 0x00, 0x10, 0x00, 0x0c, 0x00, 0x08, 0x00, 0x00, 0x00, 0x00, 0x00,
  0x00, 0x00, 0x07, 0x00, 0x16, 0x00, 0x00, 0x00, 0x00, 0x00, 0x00, 0x01,
  0x14, 0x00, 0x00, 0x00, 0x40, 0x00, 0x00, 0x00, 0x02, 0x00, 0x00, 0x00,
  0x00, 0x00, 0x00, 0x02, 0x4c, 0x00, 0x00, 0x00, 0x6c, 0xff, 0xff, 0xff,
  0x08, 0x00, 0x00, 0x00, 0x1c, 0x00, 0x00, 0x00, 0x02, 0x00, 0x00, 0x00,
  0x00, 0x00, 0x00, 0x00, 0x00, 0x00, 0x00, 0x00, 0x00, 0x00, 0x00, 0x00,
  0x00, 0x00, 0x00, 0x00, 0x00, 0x00, 0x00, 0x00, 0x02, 0x00, 0x00, 0x00,
  0xfd, 0xcd, 0x8a, 0x3d, 0x77, 0x71, 0x10, 0x3d, 0x11, 0x00, 0x00, 0x00,
  0x74, 0x66, 0x6c, 0x2e, 0x70, 0x73, 0x65, 0x75, 0x64, 0x6f, 0x5f, 0x71,
  0x63, 0x6f, 0x6e, 0x73, 0x74, 0x00, 0x00, 0x00, 0x01, 0x00, 0x00, 0x00,
  0x02, 0x00, 0x00, 0x00, 0x00, 0x00, 0x16, 0x00, 0x20, 0x00, 0x1c, 0x00,
  0x1b, 0x00, 0x14, 0x00, 0x10, 0x00, 0x0c, 0x00, 0x00, 0x00, 0x00, 0x00,
  0x08, 0x00, 0x07, 0x00, 0x16, 0x00, 0x00, 0x00, 0x00, 0x00, 0x00, 0x01,
  0x18, 0x00, 0x00, 0x00, 0x2c, 0x00, 0x00, 0x00, 0x48, 0x00, 0x00, 0x00,
  0x01, 0x00, 0x00, 0x00, 0x00, 0x00, 0x00, 0x09, 0x60, 0x00, 0x00, 0x00,
  0x02, 0x00, 0x00, 0x00, 0xff, 0xff, 0xff, 0xff, 0x24, 0x00, 0x00, 0x00,
  0x0c, 0x00, 0x0c, 0x00, 0x00, 0x00, 0x00, 0x00, 0x08, 0x00, 0x04, 0x00,
  0x0c, 0x00, 0x00, 0x00, 0x08, 0x00, 0x00, 0x00, 0x10, 0x00, 0x00, 0x00,
  0x01, 0x00, 0x00, 0x00, 0x80, 0xff, 0xff, 0xff, 0xff, 0xff, 0xff, 0xff,
  0x01, 0x00, 0x00, 0x00, 0xed, 0x7e, 0x80, 0x3b, 0x1e, 0x00, 0x00, 0x00,
  0x73, 0x65, 0x72, 0x76, 0x69, 0x6e, 0x67, 0x5f, 0x64, 0x65, 0x66, 0x61,
  0x75, 0x6c, 0x74, 0x5f, 0x6b, 0x65, 0x72, 0x61, 0x73, 0x5f, 0x74, 0x65,
  0x6e, 0x73, 0x6f, 0x72, 0x3a, 0x30, 0x00, 0x00, 0x02, 0x00, 0x00, 0x00,
  0x01, 0x00, 0x00, 0x00, 0x24, 0x00, 0x00, 0x00, 0x02, 0x00, 0x00, 0x00,
  0x2c, 0x00, 0x00, 0x00, 0x10, 0x00, 0x00, 0x00, 0x0c, 0x00, 0x0c, 0x00,
  0x0b, 0x00, 0x00, 0x00, 0x00, 0x00, 0x04, 0x00, 0x0c, 0x00, 0x00, 0x00,
  0x62, 0x00, 0x00, 0x00, 0x00, 0x00, 0x00, 0x62, 0x0c, 0x00, 0x10, 0x00,
  0x0f, 0x00, 0x00, 0x00, 0x08, 0x00, 0x04, 0x00, 0x0c, 0x00, 0x00, 0x00,
  0x09, 0x00, 0x00, 0x00, 0x04, 0x00, 0x00, 0x00, 0x00, 0x00, 0x00, 0x09
};
unsigned int model_int8_tflite_len = 9576;
